#include "model.h"

// We need to keep the data array aligned on some architectures.
#ifdef __has_attribute
#define HAVE_ATTRIBUTE(x) __has_attribute(x)
#else
#define HAVE_ATTRIBUTE(x) 0
#endif
#if HAVE_ATTRIBUTE(aligned) || (defined(__GNUC__) && !defined(__clang__))
#define DATA_ALIGN_ATTRIBUTE __attribute__((aligned(4)))
#else
#define DATA_ALIGN_ATTRIBUTE
#endif

const unsigned char kws_tflite_int8_kws_model_int8_DSCNN_tflite[] DATA_ALIGN_ATTRIBUTE= {
  0x1c, 0x00, 0x00, 0x00, 0x54, 0x46, 0x4c, 0x33, 0x14, 0x00, 0x20, 0x00,
  0x1c, 0x00, 0x18, 0x00, 0x14, 0x00, 0x10, 0x00, 0x0c, 0x00, 0x00, 0x00,
  0x08, 0x00, 0x04, 0x00, 0x14, 0x00, 0x00, 0x00, 0x1c, 0x00, 0x00, 0x00,
  0x84, 0x00, 0x00, 0x00, 0xdc, 0x00, 0x00, 0x00, 0xa0, 0x24, 0x00, 0x00,
  0xb0, 0x24, 0x00, 0x00, 0xb4, 0x4d, 0x00, 0x00, 0x03, 0x00, 0x00, 0x00,
  0x01, 0x00, 0x00, 0x00, 0x04, 0x00, 0x00, 0x00, 0xc2, 0xda, 0xff, 0xff,
  0x0c, 0x00, 0x00, 0x00, 0x1c, 0x00, 0x00, 0x00, 0x3c, 0x00, 0x00, 0x00,
  0x0f, 0x00, 0x00, 0x00, 0x73, 0x65, 0x72, 0x76, 0x69, 0x6e, 0x67, 0x5f,
  0x64, 0x65, 0x66, 0x61, 0x75, 0x6c, 0x74, 0x00, 0x01, 0x00, 0x00, 0x00,
  0x04, 0x00, 0x00, 0x00, 0x98, 0xff, 0xff, 0xff, 0x19, 0x00, 0x00, 0x00,
  0x04, 0x00, 0x00, 0x00, 0x08, 0x00, 0x00, 0x00, 0x6f, 0x75, 0x74, 0x70,
  0x75, 0x74, 0x5f, 0x30, 0x00, 0x00, 0x00, 0x00, 0x01, 0x00, 0x00, 0x00,
  0x04, 0x00, 0x00, 0x00, 0xea, 0xdb, 0xff, 0xff, 0x04, 0x00, 0x00, 0x00,
  0x05, 0x00, 0x00, 0x00, 0x69, 0x6e, 0x70, 0x75, 0x74, 0x00, 0x00, 0x00,
  0x02, 0x00, 0x00, 0x00, 0x34, 0x00, 0x00, 0x00, 0x04, 0x00, 0x00, 0x00,
  0xdc, 0xff, 0xff, 0xff, 0x1c, 0x00, 0x00, 0x00, 0x04, 0x00, 0x00, 0x00,
  0x13, 0x00, 0x00, 0x00, 0x43, 0x4f, 0x4e, 0x56, 0x45, 0x52, 0x53, 0x49,
  0x4f, 0x4e, 0x5f, 0x4d, 0x45, 0x54, 0x41, 0x44, 0x41, 0x54, 0x41, 0x00,
  0x08, 0x00, 0x0c, 0x00, 0x08, 0x00, 0x04, 0x00, 0x08, 0x00, 0x00, 0x00,
  0x1b, 0x00, 0x00, 0x00, 0x04, 0x00, 0x00, 0x00, 0x13, 0x00, 0x00, 0x00,
  0x6d, 0x69, 0x6e, 0x5f, 0x72, 0x75, 0x6e, 0x74, 0x69, 0x6d, 0x65, 0x5f,
  0x76, 0x65, 0x72, 0x73, 0x69, 0x6f, 0x6e, 0x00, 0x1d, 0x00, 0x00, 0x00,
  0xc0, 0x23, 0x00, 0x00, 0xb8, 0x23, 0x00, 0x00, 0xa0, 0x23, 0x00, 0x00,
  0x80, 0x23, 0x00, 0x00, 0x5c, 0x23, 0x00, 0x00, 0x0c, 0x22, 0x00, 0x00,
  0xfc, 0x20, 0x00, 0x00, 0xec, 0x10, 0x00, 0x00, 0xdc, 0x0f, 0x00, 0x00,
  0x8c, 0x0d, 0x00, 0x00, 0x7c, 0x0c, 0x00, 0x00, 0x6c, 0x04, 0x00, 0x00,
  0xdc, 0x03, 0x00, 0x00, 0xac, 0x02, 0x00, 0x00, 0x1c, 0x02, 0x00, 0x00,
  0xec, 0x00, 0x00, 0x00, 0xe4, 0x00, 0x00, 0x00, 0xdc, 0x00, 0x00, 0x00,
  0xd4, 0x00, 0x00, 0x00, 0xcc, 0x00, 0x00, 0x00, 0xc4, 0x00, 0x00, 0x00,
  0xbc, 0x00, 0x00, 0x00, 0xb4, 0x00, 0x00, 0x00, 0xac, 0x00, 0x00, 0x00,
  0xa4, 0x00, 0x00, 0x00, 0x9c, 0x00, 0x00, 0x00, 0x94, 0x00, 0x00, 0x00,
  0x74, 0x00, 0x00, 0x00, 0x04, 0x00, 0x00, 0x00, 0xd2, 0xdc, 0xff, 0xff,
  0x04, 0x00, 0x00, 0x00, 0x60, 0x00, 0x00, 0x00, 0x0c, 0x00, 0x00, 0x00,
  0x08, 0x00, 0x0e, 0x00, 0x08, 0x00, 0x04, 0x00, 0x08, 0x00, 0x00, 0x00,
  0x10, 0x00, 0x00, 0x00, 0x28, 0x00, 0x00, 0x00, 0x00, 0x00, 0x06, 0x00,
  0x08, 0x00, 0x04, 0x00, 0x06, 0x00, 0x00, 0x00, 0x04, 0x00, 0x00, 0x00,
  0x01, 0x00, 0x00, 0x00, 0xeb, 0x03, 0x00, 0x00, 0x0c, 0x00, 0x18, 0x00,
  0x14, 0x00, 0x10, 0x00, 0x0c, 0x00, 0x04, 0x00, 0x0c, 0x00, 0x00, 0x00,
  0x4f, 0x38, 0x5a, 0x59, 0xc0, 0xc8, 0xbb, 0x6c, 0x01, 0x00, 0x00, 0x00,
  0x02, 0x00, 0x00, 0x00, 0x04, 0x00, 0x00, 0x00, 0x06, 0x00, 0x00, 0x00,
  0x32, 0x2e, 0x32, 0x30, 0x2e, 0x30, 0x00, 0x00, 0x3e, 0xdd, 0xff, 0xff,
  0x04, 0x00, 0x00, 0x00, 0x10, 0x00, 0x00, 0x00, 0x31, 0x2e, 0x31, 0x34,
  0x2e, 0x30, 0x00, 0x00, 0x00, 0x00, 0x00, 0x00, 0x00, 0x00, 0x00, 0x00,
  0xe8, 0xb4, 0xff, 0xff, 0xec, 0xb4, 0xff, 0xff, 0xf0, 0xb4, 0xff, 0xff,
  0xf4, 0xb4, 0xff, 0xff, 0xf8, 0xb4, 0xff, 0xff, 0xfc, 0xb4, 0xff, 0xff,
  0x00, 0xb5, 0xff, 0xff, 0x04, 0xb5, 0xff, 0xff, 0x08, 0xb5, 0xff, 0xff,
  0x0c, 0xb5, 0xff, 0xff, 0x10, 0xb5, 0xff, 0xff, 0x86, 0xdd, 0xff, 0xff,
  0x04, 0x00, 0x00, 0x00, 0x20, 0x01, 0x00, 0x00, 0xc5, 0x7f, 0xc0, 0xee,
  0xfe, 0x21, 0x6a, 0xf0, 0xe2, 0x22, 0x9d, 0x55, 0x08, 0xf3, 0x1d, 0x7f,
  0xc3, 0xe5, 0x42, 0x41, 0xe8, 0xca, 0xdf, 0x67, 0x9a, 0x7f, 0x2d, 0x66,
  0xe5, 0xd2, 0x27, 0x7f, 0xae, 0x63, 0xff, 0x03, 0x7f, 0xee, 0xc4, 0x14,
  0x26, 0xd6, 0x04, 0x7c, 0xa0, 0x42, 0x7f, 0xf0, 0xdb, 0xc3, 0x0b, 0x07,
  0x06, 0x6d, 0x8f, 0x7f, 0xc4, 0xd8, 0xf7, 0xc7, 0x7f, 0x03, 0xa3, 0x21,
  0x20, 0x07, 0xf2, 0xc7, 0xfc, 0x7f, 0x1c, 0xd7, 0x49, 0xf6, 0xca, 0x7f,
  0xd4, 0x2e, 0xf2, 0xf7, 0xde, 0x15, 0x20, 0xd7, 0x37, 0xb5, 0x0f, 0x7f,
  0x31, 0xb5, 0x7f, 0x70, 0xc1, 0xa4, 0xfc, 0x00, 0x42, 0x28, 0x3c, 0x7f,
  0x9d, 0x3f, 0xcd, 0xf1, 0x57, 0x5a, 0x1c, 0x21, 0xe9, 0x14, 0xda, 0x06,
  0x98, 0x29, 0x7f, 0xe7, 0x7a, 0xf0, 0x41, 0xd7, 0xaf, 0xd8, 0x7f, 0xf9,
  0x27, 0x11, 0xd1, 0xf6, 0xe3, 0xf5, 0xc4, 0x34, 0x56, 0x9e, 0x7f, 0xd5,
  0xda, 0xdb, 0xfd, 0x01, 0x01, 0x1a, 0x81, 0x5f, 0xab, 0xbd, 0x0b, 0xb1,
  0xc6, 0x81, 0x0a, 0x38, 0xae, 0x7f, 0x85, 0xfb, 0xbf, 0x2e, 0x15, 0x25,
  0xdb, 0x0a, 0x50, 0x81, 0x15, 0x0f, 0xcf, 0x2d, 0xf9, 0xc3, 0xf2, 0xb2,
  0xf8, 0x08, 0xc7, 0x4f, 0x64, 0xee, 0x7f, 0x25, 0x35, 0x00, 0xd8, 0x90,
  0xfb, 0x7f, 0xf5, 0x12, 0x28, 0x18, 0x29, 0xfe, 0x16, 0xd5, 0xfe, 0x7f,
  0xd2, 0xf7, 0x0c, 0xe5, 0xee, 0x3e, 0x26, 0x1f, 0x3b, 0x7f, 0xdf, 0xf3,
  0xc6, 0x17, 0x7f, 0x53, 0xbd, 0xf2, 0x13, 0x08, 0x0b, 0xc6, 0xfc, 0x9b,
  0x50, 0x7f, 0xe6, 0x6b, 0xad, 0xc7, 0xce, 0x7f, 0x0a, 0xc9, 0x3e, 0x23,
  0x43, 0xa3, 0x2d, 0x32, 0x1e, 0x01, 0x0d, 0x00, 0x7f, 0x42, 0x2a, 0xc3,
  0xb1, 0x7f, 0x06, 0xe4, 0x47, 0xd1, 0xcd, 0x56, 0xe7, 0x1d, 0x7f, 0x3a,
  0xf3, 0xe9, 0xdf, 0x02, 0x02, 0xee, 0xe5, 0xfa, 0xcd, 0x01, 0x7f, 0x0b,
  0xf1, 0xec, 0xe2, 0x12, 0x27, 0x2f, 0x7f, 0xdf, 0xf3, 0x04, 0xcf, 0x0e,
  0x09, 0x02, 0xc0, 0x44, 0xf2, 0x7f, 0xb7, 0x0b, 0xb2, 0xde, 0xff, 0xff,
  0x04, 0x00, 0x00, 0x00, 0x80, 0x00, 0x00, 0x00, 0x10, 0x00, 0x00, 0x00,
  0x0e, 0x00, 0x00, 0x00, 0xd6, 0xff, 0xff, 0xff, 0xe7, 0xff, 0xff, 0xff,
  0x14, 0x00, 0x00, 0x00, 0xf3, 0xff, 0xff, 0xff, 0x19, 0x01, 0x00, 0x00,
  0xf6, 0xff, 0xff, 0xff, 0x0a, 0x00, 0x00, 0x00, 0x05, 0x00, 0x00, 0x00,
  0xe0, 0xff, 0xff, 0xff, 0x05, 0x00, 0x00, 0x00, 0x14, 0x00, 0x00, 0x00,
  0x14, 0x00, 0x00, 0x00, 0xff, 0xff, 0xff, 0xff, 0xa2, 0x00, 0x00, 0x00,
  0x30, 0x01, 0x00, 0x00, 0x31, 0x00, 0x00, 0x00, 0x27, 0x00, 0x00, 0x00,
  0xef, 0xff, 0xff, 0xff, 0xf6, 0xff, 0xff, 0xff, 0xf8, 0xff, 0xff, 0xff,
  0xed, 0xff, 0xff, 0xff, 0x0e, 0x00, 0x00, 0x00, 0x32, 0x00, 0x00, 0x00,
  0x26, 0x00, 0x00, 0x00, 0xff, 0xff, 0xff, 0xff, 0x0b, 0x00, 0x00, 0x00,
  0xf6, 0xff, 0xff, 0xff, 0xff, 0xff, 0xff, 0xff, 0xfc, 0xff, 0xff, 0xff,
  0x0f, 0x00, 0x00, 0x00, 0x3e, 0xdf, 0xff, 0xff, 0x04, 0x00, 0x00, 0x00,
  0x20, 0x01, 0x00, 0x00, 0xf2, 0x1f, 0x10, 0x38, 0x39, 0x68, 0x64, 0x4f,
  0x37, 0x11, 0x6d, 0xdb, 0xf5, 0xf5, 0x6a, 0x6a, 0xd3, 0x26, 0x4c, 0x7f,
  0x05, 0xf5, 0xfc, 0x72, 0x44, 0x45, 0x3c, 0x0a, 0x92, 0x9b, 0x15, 0xfe,
  0x2a, 0x5f, 0x01, 0x01, 0x2b, 0x32, 0xc5, 0x0f, 0xee, 0x8a, 0x73, 0xda,
  0x70, 0xdd, 0x7f, 0x18, 0x60, 0xf0, 0x5a, 0x6b, 0xf4, 0x54, 0x76, 0x23,
  0x27, 0x02, 0xf2, 0x3a, 0xa0, 0x65, 0x7d, 0x15, 0x1c, 0x5a, 0x44, 0xeb,
  0x60, 0x7f, 0xe6, 0xeb, 0x4f, 0xd3, 0x6c, 0xf5, 0x7f, 0x22, 0x12, 0x30,
  0xfb, 0xf8, 0x31, 0x4a, 0x1b, 0xda, 0x50, 0xbc, 0x02, 0x4a, 0xfa, 0x2f,
  0x81, 0x45, 0x7f, 0x44, 0x39, 0x55, 0x08, 0x0b, 0xc9, 0x6c, 0x1d, 0x3a,
  0x48, 0x7f, 0x7f, 0x29, 0x01, 0x20, 0x28, 0xd6, 0x59, 0x1c, 0x12, 0x4d,
  0x2b, 0x04, 0xdd, 0x0b, 0x26, 0x7f, 0xfa, 0x9a, 0xf8, 0x0e, 0x0c, 0xff,
  0x08, 0x11, 0xe6, 0xe8, 0xf1, 0xdb, 0x8e, 0xf5, 0xb4, 0xff, 0x49, 0x40,
  0x07, 0x1b, 0x5b, 0x2d, 0x38, 0x7f, 0x42, 0x4c, 0x50, 0x1e, 0x14, 0x6d,
  0x7d, 0xf3, 0x4c, 0x7f, 0xe0, 0xfe, 0xef, 0x30, 0x65, 0x62, 0xf3, 0x81,
  0x7f, 0x53, 0xef, 0xa4, 0x4c, 0xfb, 0x03, 0x19, 0xdf, 0x31, 0xf8, 0x38,
  0x08, 0x4b, 0x7f, 0x69, 0xe5, 0x85, 0x7f, 0xca, 0x60, 0x12, 0xed, 0x76,
  0x09, 0x81, 0x5f, 0x7f, 0xd5, 0x1b, 0xd1, 0x38, 0xf4, 0x3f, 0xd5, 0x1d,
  0x29, 0x46, 0x24, 0x29, 0xd7, 0x2e, 0xc0, 0x81, 0x7b, 0x76, 0xd1, 0x2c,
  0x5f, 0x0f, 0xf8, 0x7f, 0x13, 0x15, 0x68, 0x89, 0x48, 0xa7, 0x00, 0x48,
  0x42, 0x41, 0x81, 0xe0, 0xc1, 0x34, 0x81, 0xb8, 0x81, 0xb0, 0x62, 0x7f,
  0xae, 0x05, 0x06, 0x9f, 0x30, 0xd0, 0x03, 0x13, 0x45, 0x0d, 0x4b, 0x63,
  0x7f, 0x68, 0x7f, 0x42, 0x63, 0x18, 0x5d, 0x79, 0x7f, 0x7f, 0xdc, 0x8a,
  0xd7, 0x65, 0x23, 0x81, 0xa6, 0x7b, 0x5b, 0x5d, 0x03, 0x7f, 0xd4, 0xd0,
  0x7f, 0x11, 0x70, 0xff, 0x7f, 0x81, 0x34, 0x01, 0x07, 0x5a, 0x79, 0x21,
  0xf2, 0xab, 0x06, 0x73, 0x6a, 0xe0, 0xff, 0xff, 0x04, 0x00, 0x00, 0x00,
  0x80, 0x00, 0x00, 0x00, 0x0d, 0x00, 0x00, 0x00, 0x06, 0x00, 0x00, 0x00,
  0x04, 0x00, 0x00, 0x00, 0x22, 0x00, 0x00, 0x00, 0x31, 0x00, 0x00, 0x00,
  0x84, 0xff, 0xff, 0xff, 0xec, 0xfe, 0xff, 0xff, 0x1e, 0x00, 0x00, 0x00,
  0xfd, 0xff, 0xff, 0xff, 0xf9, 0xff, 0xff, 0xff, 0xcd, 0xff, 0xff, 0xff,
  0xff, 0xff, 0xff, 0xff, 0x8c, 0x00, 0x00, 0x00, 0xdb, 0xff, 0xff, 0xff,
  0x74, 0x00, 0x00, 0x00, 0xb2, 0x00, 0x00, 0x00, 0x99, 0x00, 0x00, 0x00,
  0xe8, 0xff, 0xff, 0xff, 0xdc, 0xff, 0xff, 0xff, 0x44, 0x00, 0x00, 0x00,
  0x5e, 0x00, 0x00, 0x00, 0xff, 0xff, 0xff, 0xff, 0x13, 0x00, 0x00, 0x00,
  0x07, 0x00, 0x00, 0x00, 0xae, 0xff, 0xff, 0xff, 0x56, 0xff, 0xff, 0xff,
  0xfa, 0xff, 0xff, 0xff, 0xf8, 0xff, 0xff, 0xff, 0xcc, 0x00, 0x00, 0x00,
  0x02, 0x00, 0x00, 0x00, 0xf0, 0xff, 0xff, 0xff, 0xbf, 0xff, 0xff, 0xff,
  0xf6, 0xe0, 0xff, 0xff, 0x04, 0x00, 0x00, 0x00, 0x00, 0x08, 0x00, 0x00,
  0x8c, 0xfd, 0x67, 0x5e, 0xe8, 0x29, 0x81, 0x64, 0x20, 0x33, 0xf0, 0x1d,
  0x1e, 0x39, 0xc5, 0xff, 0x1f, 0xfe, 0x14, 0xfb, 0xe2, 0x69, 0xd7, 0x18,
  0xca, 0x14, 0xfb, 0x43, 0xf9, 0x02, 0xdf, 0x83, 0xff, 0x15, 0xf3, 0xba,
  0x7f, 0x1e, 0x02, 0x4b, 0x7f, 0xab, 0x77, 0xce, 0xa7, 0xd2, 0x14, 0xa6,
  0x9e, 0xca, 0x69, 0x4e, 0xd8, 0x65, 0x1b, 0x5d, 0x0b, 0xfa, 0xe1, 0x69,
  0x3b, 0x51, 0x64, 0x34, 0x74, 0x27, 0x4d, 0xca, 0x6c, 0x12, 0xe2, 0xba,
  0x41, 0x81, 0xe1, 0x14, 0x4c, 0x59, 0x31, 0x40, 0xe7, 0x25, 0x31, 0x2a,
  0xea, 0x4a, 0x5d, 0x94, 0x31, 0xfd, 0x11, 0x6e, 0xdf, 0x6e, 0x18, 0x24,
  0x13, 0x25, 0x01, 0x10, 0x5c, 0xfa, 0x2d, 0x4e, 0x34, 0x05, 0xfc, 0x4e,
  0x5b, 0x3d, 0x66, 0x36, 0x18, 0x4f, 0x09, 0x66, 0xe8, 0x7f, 0x11, 0x08,
  0x2e, 0xf2, 0xfe, 0x36, 0x0d, 0x4d, 0xf2, 0xe2, 0xce, 0xd7, 0x53, 0x7f,
  0x17, 0xd3, 0x9f, 0x2f, 0x23, 0x22, 0xf0, 0xf0, 0x15, 0x3c, 0xe5, 0xfb,
  0x0b, 0xe9, 0x32, 0x2b, 0xfb, 0x7f, 0xc6, 0x36, 0xa5, 0x00, 0x06, 0x11,
  0x16, 0xc0, 0xc4, 0xdf, 0x0f, 0x4e, 0x31, 0x3f, 0x04, 0xb6, 0x81, 0x66,
  0x65, 0x69, 0xbb, 0x05, 0x13, 0x27, 0x20, 0x33, 0x0b, 0x21, 0x0e, 0xe4,
  0xc5, 0x57, 0x2e, 0xb0, 0x10, 0xbf, 0xf4, 0x52, 0xed, 0x5c, 0xc9, 0x11,
  0x01, 0x56, 0xb6, 0x81, 0xc0, 0x2e, 0x21, 0x07, 0xbd, 0x1f, 0x2e, 0x4f,
  0x4e, 0x61, 0x4a, 0x1e, 0xf9, 0x0a, 0x35, 0x3f, 0x5c, 0xed, 0x48, 0x66,
  0x32, 0x4f, 0x53, 0xb6, 0x2b, 0x1e, 0x00, 0xf6, 0x54, 0x48, 0x6d, 0xa5,
  0x1e, 0x5a, 0x20, 0x9f, 0x7c, 0x18, 0x2d, 0x1b, 0x26, 0x39, 0x4c, 0x0e,
  0xf5, 0x14, 0xce, 0x3e, 0xf6, 0x89, 0x41, 0x81, 0x5f, 0x3a, 0x2d, 0x41,
  0x86, 0x38, 0x54, 0x3d, 0x34, 0x06, 0x2a, 0xf3, 0x10, 0xfc, 0xff, 0x22,
  0x10, 0x4f, 0x07, 0x1d, 0x0d, 0x03, 0x51, 0x19, 0xa7, 0x29, 0x0a, 0x2a,
  0x34, 0xae, 0xf2, 0x8b, 0x62, 0x11, 0xfc, 0x7f, 0xeb, 0x57, 0x1e, 0x06,
  0x61, 0x43, 0x27, 0x81, 0x20, 0x1f, 0xe1, 0xb9, 0xc7, 0x2f, 0xec, 0x38,
  0xf6, 0x7f, 0xfa, 0x34, 0xd3, 0xfd, 0x03, 0xff, 0x4f, 0x09, 0xff, 0xd5,
  0xea, 0xf9, 0x10, 0x17, 0x42, 0x3f, 0x27, 0x2a, 0xf7, 0xeb, 0x82, 0x1e,
  0x25, 0x1d, 0x16, 0x20, 0xf5, 0x3a, 0x33, 0x1e, 0xfe, 0xf9, 0xe8, 0x0d,
  0xe5, 0x03, 0xe5, 0xdf, 0x0c, 0xce, 0xee, 0x35, 0x22, 0x12, 0x36, 0xe7,
  0xf2, 0x81, 0x21, 0x35, 0x0c, 0x21, 0x81, 0xd5, 0xea, 0x5b, 0xf5, 0xfa,
  0xd6, 0xe9, 0x3d, 0x16, 0x06, 0x05, 0xf2, 0xbc, 0xa9, 0xe5, 0x12, 0x12,
  0x02, 0xc1, 0xdf, 0x02, 0xfe, 0x43, 0x1b, 0xda, 0xec, 0x12, 0x38, 0x54,
  0x06, 0xd0, 0xea, 0x40, 0x03, 0xbe, 0xfa, 0xa2, 0xf8, 0x7f, 0x0e, 0x12,
  0x08, 0xb9, 0x17, 0xfd, 0x03, 0x0c, 0x2b, 0x55, 0xd8, 0x6a, 0x06, 0xf0,
  0xf7, 0xfe, 0x48, 0xc1, 0xfe, 0x0f, 0xa5, 0x64, 0xf4, 0xce, 0x0a, 0xd2,
  0xd4, 0xb3, 0x76, 0xcf, 0xe2, 0xaa, 0xe1, 0xbf, 0x27, 0x5e, 0x34, 0xea,
  0xf8, 0x19, 0x99, 0x81, 0xc1, 0x0d, 0x33, 0xa1, 0x06, 0xbf, 0x5b, 0xdf,
  0xa6, 0x86, 0xa2, 0x1f, 0x3b, 0x25, 0xb3, 0xc1, 0x34, 0x33, 0x4c, 0x1e,
  0xd9, 0x2d, 0x2a, 0x15, 0xd8, 0x37, 0xd7, 0x00, 0xc0, 0x20, 0xf7, 0xe4,
  0xe4, 0x29, 0xf0, 0x35, 0x1a, 0x04, 0x24, 0xca, 0x81, 0x15, 0xf3, 0x23,
  0x38, 0x4a, 0x69, 0x20, 0x49, 0xf9, 0xf0, 0xf6, 0x5e, 0xeb, 0x18, 0xc0,
  0x6d, 0xec, 0x18, 0x01, 0x11, 0x37, 0x7f, 0x00, 0xb9, 0x38, 0x12, 0x8b,
  0xde, 0xba, 0xb6, 0x1e, 0xe6, 0x06, 0x16, 0xe2, 0xc5, 0xc6, 0xee, 0x4f,
  0x3c, 0x8a, 0xdd, 0xee, 0xfb, 0xf4, 0x94, 0x16, 0x18, 0x04, 0xb6, 0xa3,
  0x33, 0xba, 0x81, 0x08, 0x90, 0x99, 0x8b, 0xa3, 0xb2, 0x2c, 0x26, 0xa8,
  0x56, 0xf8, 0x8b, 0xe4, 0x27, 0x2a, 0x04, 0x96, 0x1c, 0xc8, 0xa8, 0x81,
  0x22, 0xe2, 0x21, 0x14, 0x42, 0x3a, 0xf9, 0x17, 0x18, 0xfe, 0x46, 0x05,
  0x1a, 0x23, 0x4e, 0xcb, 0x25, 0xef, 0x01, 0x15, 0xf3, 0x37, 0x27, 0x2f,
  0x64, 0x0f, 0xbc, 0x2d, 0xdf, 0xee, 0x37, 0xab, 0xe8, 0x6b, 0x76, 0xb6,
  0x2e, 0x78, 0x9a, 0x7f, 0xef, 0x70, 0xd8, 0x29, 0x37, 0x40, 0x52, 0x5e,
  0xd0, 0x49, 0x28, 0xf9, 0x07, 0x64, 0xae, 0x7c, 0xf4, 0xe2, 0x1f, 0xd1,
  0xdd, 0xff, 0x81, 0xd5, 0xdb, 0x13, 0x12, 0x42, 0xd7, 0x29, 0x37, 0x03,
  0xda, 0xd4, 0xbf, 0x31, 0x11, 0xa9, 0x2a, 0xed, 0xed, 0xda, 0x41, 0xed,
  0x31, 0xd4, 0x0c, 0x07, 0x7f, 0xff, 0x15, 0x97, 0x5f, 0x47, 0xfe, 0xd9,
  0x0a, 0x33, 0xd0, 0x75, 0x24, 0x76, 0xe8, 0x48, 0xff, 0xf0, 0x20, 0x3f,
  0xdd, 0xdd, 0x40, 0xe8, 0x14, 0x29, 0x21, 0x07, 0xf5, 0x09, 0x17, 0x4b,
  0x63, 0x2d, 0xa4, 0x16, 0x28, 0x10, 0xfe, 0xee, 0xd7, 0x48, 0xf8, 0x0e,
  0x0b, 0x4b, 0x1a, 0x15, 0x81, 0x34, 0x71, 0xeb, 0x03, 0x0f, 0xed, 0x29,
  0x1e, 0x2a, 0xf7, 0x13, 0x3b, 0xb4, 0x24, 0x4e, 0xe5, 0x3b, 0xeb, 0xee,
  0xd7, 0xd0, 0xea, 0x97, 0xf8, 0x66, 0xd7, 0x32, 0xe6, 0x56, 0x12, 0x0a,
  0x17, 0xfb, 0xf6, 0x29, 0x2a, 0x2a, 0x17, 0x4d, 0xef, 0x07, 0x37, 0x00,
  0x7f, 0x13, 0xe9, 0x31, 0x17, 0x20, 0xff, 0x95, 0x2f, 0x17, 0x81, 0x89,
  0xe7, 0xeb, 0x0c, 0xb3, 0xc2, 0x09, 0x3a, 0x1d, 0xf3, 0xf9, 0x08, 0x5f,
  0x0c, 0xc3, 0xe7, 0x04, 0x1e, 0x67, 0xc3, 0x29, 0x95, 0x34, 0x6b, 0x34,
  0xfc, 0xf4, 0x39, 0x97, 0xdc, 0x2f, 0xca, 0xb0, 0xad, 0x44, 0x07, 0x21,
  0x5a, 0x48, 0x04, 0x35, 0xdb, 0x11, 0xc1, 0x15, 0x6d, 0x81, 0x05, 0x4d,
  0x0f, 0xf3, 0x2a, 0x01, 0x74, 0x39, 0xfe, 0x26, 0xf8, 0xb0, 0x81, 0xc5,
  0xed, 0xa2, 0x7b, 0x17, 0xe6, 0xb2, 0x8a, 0x88, 0xc8, 0xec, 0x40, 0xf7,
  0xeb, 0xf8, 0x0c, 0x18, 0x8e, 0xb6, 0xab, 0x61, 0x20, 0x25, 0xbe, 0xfe,
  0x10, 0x19, 0xe3, 0xcf, 0xf3, 0xda, 0x54, 0x7f, 0x10, 0xf0, 0xab, 0x58,
  0x10, 0x4a, 0x00, 0xef, 0x15, 0x07, 0x20, 0x1d, 0xf9, 0x13, 0x21, 0x04,
  0xf3, 0x64, 0xcc, 0x00, 0xe5, 0xdf, 0xee, 0x45, 0xe9, 0xfa, 0x05, 0xe2,
  0xe9, 0xe2, 0xd1, 0xcd, 0x0d, 0x3f, 0x35, 0x0a, 0x0e, 0xf7, 0xec, 0x06,
  0xdd, 0x19, 0xed, 0xb4, 0x85, 0x1f, 0x3a, 0xb5, 0xc3, 0xc7, 0x0e, 0x22,
  0x1c, 0xf8, 0x10, 0xe5, 0x81, 0xfd, 0xf5, 0x23, 0x0e, 0x24, 0x81, 0xe7,
  0x21, 0x41, 0x1d, 0x26, 0xf0, 0x05, 0x2f, 0x2e, 0x1b, 0x24, 0x13, 0xf3,
  0xda, 0x41, 0x0b, 0x14, 0x40, 0xbf, 0xef, 0x30, 0x26, 0x0e, 0x40, 0x15,
  0xab, 0xdd, 0x01, 0x37, 0x06, 0x09, 0x31, 0x87, 0xfb, 0xbb, 0xa3, 0xe6,
  0x43, 0x32, 0xda, 0xf1, 0x57, 0x88, 0x19, 0x3f, 0x08, 0x3d, 0x75, 0xe0,
  0x91, 0x7f, 0x2a, 0xef, 0xbf, 0xce, 0xcc, 0xe3, 0x92, 0x14, 0x1f, 0xf4,
  0x35, 0xfb, 0x08, 0x81, 0x19, 0x0c, 0xe2, 0x1f, 0x11, 0xe2, 0x26, 0x22,
  0x39, 0x07, 0x37, 0x3a, 0x04, 0x3a, 0xf7, 0x0f, 0xdf, 0x11, 0x28, 0xc9,
  0xe4, 0xde, 0xe9, 0x0e, 0xd4, 0x1f, 0x23, 0xe7, 0xf7, 0xfe, 0x81, 0x13,
  0xd8, 0x23, 0xed, 0xea, 0xe5, 0x07, 0xfc, 0x31, 0xc8, 0x4e, 0xcd, 0x15,
  0x13, 0x33, 0xf1, 0xed, 0x09, 0xa5, 0x20, 0x4a, 0x59, 0x0a, 0x42, 0x23,
  0x33, 0xa4, 0x13, 0x4d, 0x3b, 0x15, 0xfb, 0x5b, 0x12, 0x03, 0x28, 0x40,
  0x41, 0x2e, 0xe3, 0x04, 0xc6, 0x41, 0x13, 0x38, 0x3a, 0x1c, 0x3c, 0xf6,
  0x1e, 0x26, 0x0e, 0xdd, 0x04, 0x27, 0xe3, 0x7f, 0x2c, 0xfb, 0x05, 0x02,
  0x00, 0x12, 0x52, 0xf9, 0x3f, 0x05, 0xdf, 0xf8, 0x26, 0x81, 0xef, 0xcc,
  0x34, 0xef, 0x40, 0x09, 0xfc, 0x2e, 0x35, 0x2c, 0xe3, 0x3f, 0x0d, 0xbd,
  0x11, 0xf7, 0xfa, 0x30, 0x9e, 0x3f, 0x19, 0xeb, 0x15, 0x1f, 0x34, 0x81,
  0x03, 0x3c, 0xb6, 0xdb, 0x0d, 0x92, 0x17, 0xf8, 0x43, 0xf4, 0x3b, 0x02,
  0xec, 0x04, 0xf2, 0x0f, 0xd8, 0x10, 0x2f, 0x01, 0x16, 0x1a, 0x19, 0x08,
  0x02, 0x36, 0x37, 0x1b, 0xf4, 0x00, 0xa3, 0x0f, 0xf8, 0x7f, 0x74, 0xf7,
  0x21, 0x22, 0x6b, 0xdc, 0xed, 0x12, 0xd8, 0x02, 0xa8, 0x03, 0x28, 0x1e,
  0x52, 0xce, 0x26, 0x5a, 0x4c, 0x41, 0x5c, 0x81, 0xbc, 0xfc, 0x4d, 0x4f,
  0x81, 0xcc, 0xc0, 0x55, 0xc4, 0x93, 0x16, 0x1c, 0x8f, 0x8b, 0x13, 0x19,
  0xce, 0xb8, 0xcb, 0x23, 0x50, 0xd1, 0xbb, 0x15, 0xaf, 0x18, 0x0d, 0x01,
  0x88, 0xd9, 0xe1, 0x9d, 0xb7, 0x9a, 0x50, 0xf7, 0xff, 0xe5, 0x7f, 0x00,
  0x1a, 0x26, 0x24, 0x2d, 0x44, 0x66, 0xeb, 0xf3, 0x20, 0x0c, 0xe8, 0x1d,
  0x27, 0x18, 0x15, 0x15, 0xeb, 0xec, 0x28, 0xb2, 0x14, 0x09, 0xeb, 0x49,
  0xf3, 0x24, 0x02, 0xdd, 0x94, 0x30, 0x0a, 0x23, 0xdd, 0x3c, 0xaa, 0x4d,
  0xe5, 0xd4, 0x03, 0xf1, 0xce, 0x51, 0xdf, 0xfe, 0x1d, 0xfb, 0x40, 0x14,
  0x2a, 0x75, 0x98, 0xe5, 0x98, 0xee, 0xed, 0x15, 0xaf, 0x81, 0xa2, 0x0b,
  0x0b, 0x9a, 0x15, 0x81, 0x1a, 0x65, 0x79, 0x37, 0x18, 0xae, 0xa5, 0x08,
  0x36, 0x30, 0xdc, 0xbc, 0xf1, 0x82, 0x4b, 0x93, 0x81, 0x47, 0xe7, 0xbb,
  0x69, 0xf1, 0xb1, 0x81, 0x72, 0x8d, 0xd8, 0x27, 0x43, 0x24, 0x81, 0x4f,
  0x3c, 0x5c, 0x35, 0x3e, 0x32, 0x5f, 0x59, 0x2d, 0x1a, 0xf6, 0x0a, 0x29,
  0xd5, 0x24, 0x0b, 0x1c, 0x54, 0xe7, 0x0f, 0x45, 0x27, 0x3b, 0x46, 0xb0,
  0xde, 0xc6, 0x22, 0x52, 0x34, 0x39, 0x38, 0x81, 0x20, 0xde, 0xda, 0x92,
  0x3a, 0x13, 0xdc, 0x3d, 0x0e, 0x2d, 0x43, 0x1e, 0x2a, 0xe6, 0x27, 0x1f,
  0x1e, 0x3f, 0x4c, 0xb7, 0x0e, 0x00, 0x29, 0x58, 0xdc, 0x0e, 0x0b, 0x03,
  0x39, 0x08, 0x07, 0x9a, 0x03, 0x31, 0xed, 0x04, 0xe4, 0xe5, 0x32, 0x0b,
  0xaa, 0x0c, 0xe5, 0x7f, 0x4a, 0x25, 0x68, 0x4e, 0x1a, 0x49, 0x04, 0xc7,
  0x04, 0x6e, 0x23, 0x02, 0x2a, 0xf1, 0x4f, 0xed, 0xe8, 0xf7, 0x0f, 0x11,
  0xd8, 0x6c, 0x7f, 0xd8, 0x2d, 0x0b, 0x62, 0xba, 0x14, 0x25, 0xe9, 0x12,
  0xdd, 0x23, 0xe5, 0x3d, 0x56, 0xa4, 0x32, 0xde, 0x20, 0x23, 0xe0, 0x05,
  0xdd, 0x1e, 0x08, 0xf0, 0xf3, 0x17, 0xc3, 0x18, 0xda, 0x18, 0xec, 0x15,
  0x1a, 0x26, 0xf0, 0xfc, 0xe1, 0xe5, 0x19, 0xea, 0x7f, 0x1a, 0xc3, 0x22,
  0xf0, 0x2a, 0xbf, 0xb4, 0xf6, 0x28, 0x17, 0xe8, 0xfb, 0xf8, 0x05, 0x0a,
  0x27, 0x3f, 0xcd, 0x81, 0xda, 0xd6, 0x0f, 0xe1, 0xc8, 0x26, 0x0c, 0x62,
  0xf3, 0x08, 0x44, 0x54, 0xdc, 0x2d, 0x4c, 0xf9, 0xf7, 0xe1, 0xf1, 0xee,
  0x3a, 0x13, 0x2a, 0x3d, 0x68, 0x3a, 0xe2, 0x43, 0xfd, 0x1b, 0xb7, 0x49,
  0xbb, 0x01, 0x67, 0x4f, 0x7f, 0x66, 0x2a, 0xfc, 0xa4, 0xec, 0x06, 0xe9,
  0x0a, 0x2a, 0xec, 0xd8, 0xfd, 0x08, 0xef, 0x2f, 0x04, 0xee, 0x4d, 0xa3,
  0xe8, 0x0d, 0xfc, 0xf3, 0x17, 0xe4, 0xf7, 0x03, 0xbd, 0xc3, 0xea, 0xc6,
  0x03, 0x42, 0x03, 0x7f, 0xeb, 0x3e, 0x27, 0x0a, 0x22, 0xc1, 0xff, 0x33,
  0xf7, 0xf0, 0x22, 0xed, 0xfe, 0xad, 0x66, 0xfa, 0x25, 0x0c, 0xc5, 0x3e,
  0x4a, 0x32, 0xce, 0xcb, 0xcf, 0x17, 0x19, 0x16, 0x11, 0x19, 0x2b, 0x59,
  0xe8, 0x7f, 0x19, 0xf4, 0xed, 0x22, 0xe5, 0x38, 0x67, 0xb0, 0x08, 0xcf,
  0x5e, 0x52, 0x37, 0x3b, 0xfa, 0xda, 0x64, 0x52, 0x6f, 0x70, 0x07, 0xb4,
  0xfb, 0xcb, 0xfc, 0x21, 0x3f, 0x16, 0x0e, 0x29, 0x51, 0x15, 0x48, 0x39,
  0xd2, 0x4c, 0x4d, 0x59, 0x07, 0x5c, 0x4a, 0x15, 0x2b, 0x53, 0x00, 0x5d,
  0x84, 0x7f, 0x40, 0x45, 0x06, 0x16, 0x56, 0xd3, 0x22, 0x53, 0xa6, 0xdb,
  0x3b, 0xae, 0x1f, 0xc5, 0x75, 0xcf, 0x67, 0x05, 0x38, 0x70, 0x32, 0x5c,
  0xe8, 0x7f, 0x49, 0xee, 0xfa, 0xf8, 0xd2, 0x0e, 0x96, 0x47, 0x26, 0x02,
  0x7f, 0x6c, 0x0b, 0xb7, 0x08, 0xa0, 0x1b, 0x85, 0xd0, 0x31, 0xb7, 0x7b,
  0xa2, 0x69, 0xc6, 0xef, 0x10, 0xea, 0x36, 0xcc, 0x37, 0x15, 0x24, 0xfe,
  0x2a, 0x17, 0x17, 0x5f, 0xd6, 0xda, 0xd2, 0x65, 0x0e, 0x21, 0xdd, 0x07,
  0xc5, 0x04, 0xc8, 0xf7, 0xbc, 0x04, 0x0e, 0xc2, 0xf9, 0x3d, 0x30, 0x01,
  0xad, 0x07, 0x54, 0xe9, 0x00, 0x7f, 0xd3, 0x26, 0x2a, 0x4f, 0xf7, 0xec,
  0xc7, 0x2e, 0xd3, 0xd7, 0x3e, 0xee, 0x81, 0xed, 0x47, 0x3f, 0x4c, 0xcb,
  0x2b, 0xe6, 0x11, 0xe0, 0xd8, 0x1e, 0xbb, 0x01, 0xd7, 0xe3, 0xe3, 0xbf,
  0x2b, 0x84, 0x1d, 0x35, 0x4b, 0x09, 0x3b, 0xfd, 0xd0, 0xc7, 0xcb, 0x06,
  0x21, 0x51, 0x5f, 0x8a, 0x51, 0xe5, 0xa7, 0xe1, 0x12, 0x97, 0x20, 0xeb,
  0x7f, 0xf5, 0x10, 0x10, 0x26, 0x7a, 0x60, 0x2c, 0xae, 0x20, 0x3e, 0xf5,
  0xc3, 0x2a, 0xb0, 0x15, 0xd6, 0x0f, 0x24, 0xf3, 0x29, 0x5c, 0xc8, 0x3d,
  0xb2, 0x02, 0x23, 0x56, 0xf4, 0xfd, 0x4f, 0x40, 0xf8, 0x28, 0x2f, 0x28,
  0xb2, 0x50, 0x24, 0x29, 0x45, 0x7f, 0x35, 0x3b, 0x53, 0x4c, 0x58, 0x04,
  0xdc, 0xcd, 0x57, 0x3c, 0xe3, 0x1b, 0xa8, 0x56, 0xae, 0xdd, 0x68, 0x7f,
  0x6b, 0xea, 0x06, 0x22, 0xf5, 0xa0, 0x6d, 0x56, 0xf3, 0x19, 0x32, 0xd9,
  0xff, 0x12, 0xd4, 0x59, 0xf2, 0x3b, 0xf3, 0xa3, 0xf0, 0xa4, 0xf8, 0xc7,
  0x81, 0xd2, 0xf8, 0xb2, 0xd6, 0xc3, 0xfe, 0xf4, 0x00, 0xe7, 0xbd, 0xa4,
  0x4e, 0x2e, 0xb6, 0xd1, 0x30, 0x10, 0xc8, 0x24, 0x9e, 0x35, 0xa2, 0xd3,
  0xce, 0x0b, 0xba, 0x3f, 0xab, 0x15, 0xb1, 0xf8, 0xfc, 0xd5, 0x7f, 0xfa,
  0xff, 0xf4, 0xf5, 0xec, 0xfc, 0x11, 0x51, 0x37, 0xb9, 0x5a, 0xe4, 0xf9,
  0xb3, 0x13, 0xe4, 0x24, 0x6a, 0xb3, 0x5c, 0xe3, 0x56, 0x21, 0x13, 0xf5,
  0xba, 0x97, 0x45, 0xf3, 0x3a, 0xf4, 0x78, 0xb7, 0x5f, 0x18, 0x31, 0xdc,
  0x79, 0xdc, 0xe5, 0xbd, 0x63, 0x98, 0x13, 0xe9, 0x18, 0x0a, 0x32, 0x45,
  0xb3, 0x73, 0x5d, 0x8f, 0x29, 0xe5, 0xc8, 0x62, 0xa8, 0x7f, 0xfe, 0x2d,
  0xcb, 0xe5, 0x3f, 0x56, 0x16, 0xf3, 0x81, 0x1e, 0x1a, 0xeb, 0x0b, 0x0f,
  0xef, 0x50, 0xd4, 0x1c, 0x15, 0xe7, 0x29, 0xd5, 0x2b, 0x64, 0x04, 0x2d,
  0xba, 0xf4, 0xfc, 0x1f, 0xc3, 0x0c, 0xfd, 0xf0, 0x59, 0x24, 0x0f, 0x1e,
  0xf6, 0x26, 0xce, 0xac, 0xb7, 0x0b, 0xff, 0x4f, 0xd3, 0x33, 0x03, 0x00,
  0xbc, 0xff, 0xc9, 0x23, 0x18, 0x81, 0x39, 0x07, 0x52, 0xfc, 0x29, 0xf2,
  0x20, 0x98, 0x4a, 0x18, 0xda, 0x06, 0x4d, 0x70, 0xc9, 0x0f, 0x9d, 0x6b,
  0x0b, 0x6a, 0xc9, 0xdb, 0xf5, 0x1e, 0x16, 0x03, 0x0e, 0x0a, 0x27, 0xdb,
  0x00, 0x6a, 0xcf, 0x2e, 0xb8, 0x2b, 0x9d, 0x7f, 0xf1, 0x4f, 0x04, 0xeb,
  0xde, 0x4f, 0xd7, 0x7f, 0xe0, 0x44, 0x75, 0xfa, 0xf9, 0xf4, 0x01, 0x1a,
  0x18, 0x4c, 0xe6, 0xc8, 0xb8, 0x30, 0xd0, 0xe6, 0x52, 0xb6, 0x08, 0x4c,
  0x3b, 0x61, 0xe4, 0x05, 0x06, 0xb8, 0x24, 0x33, 0x02, 0xe9, 0xff, 0xff,
  0x04, 0x00, 0x00, 0x00, 0x00, 0x01, 0x00, 0x00, 0x31, 0x00, 0x00, 0x00,
  0x20, 0x00, 0x00, 0x00, 0xcd, 0xff, 0xff, 0xff, 0xd1, 0xff, 0xff, 0xff,
  0x3c, 0x00, 0x00, 0x00, 0xca, 0xff, 0xff, 0xff, 0xbd, 0xff, 0xff, 0xff,
  0x0d, 0x00, 0x00, 0x00, 0xe0, 0xff, 0xff, 0xff, 0xf5, 0xff, 0xff, 0xff,
  0x1d, 0x00, 0x00, 0x00, 0x01, 0x00, 0x00, 0x00, 0x59, 0x00, 0x00, 0x00,
  0x0a, 0xff, 0xff, 0xff, 0xa5, 0xff, 0xff, 0xff, 0x3a, 0x00, 0x00, 0x00,
  0x20, 0xff, 0xff, 0xff, 0x8f, 0x00, 0x00, 0x00, 0xd6, 0xff, 0xff, 0xff,
  0xc0, 0xff, 0xff, 0xff, 0x0e, 0x00, 0x00, 0x00, 0x49, 0xff, 0xff, 0xff,
  0xf7, 0xff, 0xff, 0xff, 0x6d, 0x00, 0x00, 0x00, 0x25, 0x00, 0x00, 0x00,
  0x05, 0xff, 0xff, 0xff, 0xbe, 0xff, 0xff, 0xff, 0x3d, 0xff, 0xff, 0xff,
  0xe4, 0xff, 0xff, 0xff, 0x58, 0x00, 0x00, 0x00, 0xe2, 0xff, 0xff, 0xff,
  0x34, 0x00, 0x00, 0x00, 0x7c, 0x00, 0x00, 0x00, 0xff, 0xff, 0xff, 0xff,
  0xfb, 0xff, 0xff, 0xff, 0x96, 0xff, 0xff, 0xff, 0x3d, 0xff, 0xff, 0xff,
  0xbe, 0xff, 0xff, 0xff, 0xf9, 0xff, 0xff, 0xff, 0x97, 0x00, 0x00, 0x00,
  0x28, 0x00, 0x00, 0x00, 0x4f, 0x00, 0x00, 0x00, 0x62, 0x00, 0x00, 0x00,
  0xd0, 0xff, 0xff, 0xff, 0x01, 0x01, 0x00, 0x00, 0x04, 0x00, 0x00, 0x00,
  0x1c, 0x00, 0x00, 0x00, 0xb9, 0xff, 0xff, 0xff, 0xe7, 0xff, 0xff, 0xff,
  0x55, 0xff, 0xff, 0xff, 0xfa, 0xff, 0xff, 0xff, 0x2d, 0x00, 0x00, 0x00,
  0x74, 0xff, 0xff, 0xff, 0x7b, 0xff, 0xff, 0xff, 0xf2, 0xff, 0xff, 0xff,
  0x82, 0xff, 0xff, 0xff, 0xe6, 0xff, 0xff, 0xff, 0xff, 0xff, 0xff, 0xff,
  0x44, 0x00, 0x00, 0x00, 0x30, 0x00, 0x00, 0x00, 0x25, 0x00, 0x00, 0x00,
  0xb9, 0xff, 0xff, 0xff, 0xd5, 0xff, 0xff, 0xff, 0xcb, 0xff, 0xff, 0xff,
  0x0e, 0xea, 0xff, 0xff, 0x04, 0x00, 0x00, 0x00, 0x40, 0x02, 0x00, 0x00,
  0x71, 0x7f, 0xce, 0x2f, 0x13, 0x20, 0x73, 0x30, 0x7f, 0xfb, 0xa8, 0xc8,
  0x2e, 0x81, 0xb4, 0xb9, 0x23, 0xe1, 0xf8, 0x5a, 0x5e, 0x2c, 0x7f, 0xb5,
  0xd2, 0x4b, 0xf8, 0xcb, 0x3a, 0x7a, 0xf2, 0xbd, 0x81, 0x81, 0xd3, 0x94,
  0xdb, 0xab, 0x34, 0x2f, 0x93, 0x0f, 0x1a, 0x7f, 0xd3, 0x01, 0xd6, 0xfc,
  0x0e, 0x01, 0x17, 0x17, 0x4e, 0x39, 0x9d, 0x15, 0xf1, 0x24, 0x7f, 0xb2,
  0xee, 0x5c, 0x3c, 0x7f, 0x52, 0x33, 0x8d, 0xcf, 0x45, 0x65, 0x51, 0xfc,
  0xeb, 0x27, 0xa3, 0x7f, 0x44, 0x54, 0x07, 0x55, 0x7f, 0xb1, 0x43, 0x4b,
  0xaa, 0xcd, 0x1c, 0x12, 0x26, 0x76, 0x45, 0xbf, 0xae, 0x63, 0x7f, 0x25,
  0xc4, 0xc2, 0x45, 0x12, 0x18, 0x62, 0x0c, 0x61, 0x04, 0xc7, 0xd6, 0x59,
  0x0d, 0x50, 0x38, 0xc6, 0x12, 0x0e, 0xf8, 0xcf, 0x0c, 0x66, 0xcb, 0xfd,
  0x48, 0x75, 0x79, 0x74, 0xf0, 0x4e, 0x7f, 0x44, 0x50, 0x1b, 0x7f, 0xf8,
  0xfc, 0xf3, 0x4f, 0xa7, 0xcd, 0x68, 0x23, 0x48, 0x4c, 0x57, 0x14, 0xe4,
  0x07, 0x6c, 0x36, 0xb7, 0x2f, 0x81, 0x3b, 0xbd, 0x55, 0x6f, 0x7f, 0x81,
  0xc2, 0x02, 0x4f, 0x26, 0x00, 0xe0, 0x43, 0x41, 0xa1, 0xde, 0x36, 0x42,
  0x32, 0x7f, 0x1f, 0x10, 0xa2, 0x78, 0x05, 0xe9, 0x81, 0x1c, 0x25, 0x81,
  0x3c, 0xc1, 0xbf, 0x23, 0x81, 0xf2, 0x2a, 0xc9, 0x05, 0xcc, 0x31, 0x2c,
  0x4e, 0xd0, 0x71, 0x7b, 0x59, 0x30, 0x46, 0x1e, 0x44, 0x19, 0x45, 0xa1,
  0xc5, 0x79, 0x5f, 0xde, 0x7c, 0x6f, 0x4a, 0xf4, 0xd3, 0x39, 0xdb, 0x2e,
  0x3b, 0xe3, 0xd4, 0xd3, 0xf0, 0x07, 0xe0, 0xea, 0x2e, 0x57, 0xad, 0x9e,
  0x7f, 0x49, 0x7f, 0x8d, 0xa3, 0x6e, 0x7f, 0x1f, 0x7f, 0x7f, 0xf2, 0x29,
  0x3b, 0x00, 0x81, 0x0f, 0x7f, 0x04, 0x48, 0xcf, 0xf8, 0xa4, 0x3f, 0x2f,
  0xc0, 0x92, 0xe0, 0x43, 0xec, 0x9e, 0x67, 0xe3, 0x7f, 0x49, 0xe6, 0x25,
  0xdc, 0x05, 0x21, 0x67, 0xb3, 0xca, 0x59, 0x1e, 0xf1, 0xc5, 0x12, 0x6d,
  0x6a, 0xe6, 0xd1, 0x7f, 0xca, 0xb7, 0x46, 0xf9, 0x1d, 0xd0, 0xa5, 0xa3,
  0x21, 0x45, 0xd1, 0x2c, 0x10, 0xe3, 0x5e, 0x25, 0xe1, 0x18, 0x56, 0x27,
  0x39, 0xf6, 0x01, 0xef, 0xfb, 0xbc, 0xc9, 0x21, 0x07, 0x2a, 0x38, 0x47,
  0x76, 0x57, 0xe0, 0xba, 0x7b, 0xaa, 0x23, 0xeb, 0x3c, 0x55, 0x6e, 0x7f,
  0x6b, 0x7f, 0xf3, 0x84, 0xa9, 0x54, 0xf3, 0x05, 0xbf, 0xf8, 0x4f, 0xe8,
  0xb3, 0x7f, 0x7b, 0xaf, 0x7f, 0xfa, 0x69, 0xbb, 0xf0, 0x6c, 0x61, 0xc5,
  0xc9, 0x4b, 0x90, 0xca, 0x3b, 0x5b, 0x18, 0x31, 0x25, 0x7a, 0x75, 0x81,
  0x51, 0x66, 0xdf, 0x0d, 0xce, 0x67, 0x04, 0x20, 0x2f, 0xaa, 0xf2, 0x83,
  0x18, 0x58, 0x0d, 0xb0, 0xd5, 0x86, 0x13, 0x06, 0x65, 0xfb, 0xd6, 0x37,
  0x57, 0x1e, 0xba, 0xbd, 0x6d, 0xb5, 0x03, 0x17, 0x6e, 0xe2, 0x7f, 0x29,
  0x7f, 0x23, 0x0e, 0x7e, 0x74, 0x7f, 0x81, 0x60, 0xf2, 0xe3, 0x06, 0x5d,
  0xd4, 0x1e, 0x51, 0xbe, 0x69, 0x12, 0x0a, 0x75, 0xe8, 0x0c, 0x81, 0x81,
  0x76, 0x74, 0x17, 0x71, 0x81, 0x2a, 0xc5, 0x21, 0x05, 0xdd, 0x27, 0x7f,
  0x0d, 0xdc, 0x36, 0x65, 0x4d, 0x7f, 0xd8, 0x88, 0xc4, 0xf0, 0xce, 0x69,
  0x0c, 0x04, 0x16, 0x0a, 0xfa, 0x55, 0xb0, 0xde, 0x50, 0x4d, 0x81, 0xd2,
  0xb5, 0x81, 0x07, 0x7e, 0x4b, 0xb4, 0x7f, 0x44, 0xa3, 0x17, 0x2e, 0x7f,
  0xf6, 0x36, 0x1d, 0x2d, 0x18, 0x81, 0x40, 0xdb, 0x7f, 0x5c, 0x1a, 0x4b,
  0x38, 0x4d, 0xea, 0xf4, 0xd3, 0x1b, 0x59, 0x5f, 0x40, 0xad, 0xab, 0xdd,
  0x3f, 0x97, 0x81, 0x60, 0xcb, 0xb8, 0x4c, 0x70, 0x4d, 0x2e, 0xc6, 0x81,
  0xe5, 0x0c, 0x71, 0x22, 0x7f, 0x70, 0x5b, 0x29, 0x7f, 0xbb, 0xb8, 0x96,
  0xff, 0xd5, 0x0d, 0x81, 0x1e, 0x26, 0x78, 0x7d, 0x6a, 0xde, 0x4d, 0x7f,
  0x51, 0xc2, 0xd3, 0xfa, 0xb8, 0x1d, 0xee, 0xaa, 0x81, 0xb3, 0x63, 0xb0,
  0x5a, 0x7f, 0x2c, 0x7f, 0x06, 0x19, 0x27, 0x65, 0xee, 0x7f, 0x4e, 0x82,
  0x07, 0x1a, 0x60, 0x48, 0xaf, 0xc3, 0x08, 0x71, 0xbb, 0x81, 0x39, 0xd6,
  0x1f, 0x1b, 0x7f, 0x99, 0x77, 0x7f, 0xb2, 0x7f, 0x20, 0x7f, 0xcf, 0x46,
  0x5a, 0xec, 0xff, 0xff, 0x04, 0x00, 0x00, 0x00, 0x00, 0x01, 0x00, 0x00,
  0xf3, 0xff, 0xff, 0xff, 0x68, 0xff, 0xff, 0xff, 0xf9, 0xff, 0xff, 0xff,
  0x31, 0x00, 0x00, 0x00, 0x28, 0x00, 0x00, 0x00, 0xff, 0xff, 0xff, 0xff,
  0x07, 0x00, 0x00, 0x00, 0x3f, 0x00, 0x00, 0x00, 0xed, 0xff, 0xff, 0xff,
  0x00, 0x00, 0x00, 0x00, 0x53, 0x00, 0x00, 0x00, 0xe0, 0xff, 0xff, 0xff,
  0x48, 0x00, 0x00, 0x00, 0x8e, 0xff, 0xff, 0xff, 0x9c, 0xff, 0xff, 0xff,
  0xfe, 0xff, 0xff, 0xff, 0x47, 0x00, 0x00, 0x00, 0xbb, 0xff, 0xff, 0xff,
  0xd6, 0xff, 0xff, 0xff, 0x52, 0x00, 0x00, 0x00, 0xd1, 0xff, 0xff, 0xff,
  0xcc, 0xff, 0xff, 0xff, 0xe7, 0xff, 0xff, 0xff, 0x1e, 0x00, 0x00, 0x00,
  0x0e, 0x00, 0x00, 0x00, 0xae, 0xff, 0xff, 0xff, 0x27, 0x00, 0x00, 0x00,
  0x39, 0x00, 0x00, 0x00, 0xdf, 0xff, 0xff, 0xff, 0x00, 0x00, 0x00, 0x00,
  0x00, 0x00, 0x00, 0x00, 0x28, 0x00, 0x00, 0x00, 0xf2, 0xff, 0xff, 0xff,
  0x0c, 0x00, 0x00, 0x00, 0x33, 0x00, 0x00, 0x00, 0xf7, 0xff, 0xff, 0xff,
  0x04, 0x00, 0x00, 0x00, 0x06, 0x00, 0x00, 0x00, 0x05, 0x00, 0x00, 0x00,
  0x6f, 0xff, 0xff, 0xff, 0xc6, 0xff, 0xff, 0xff, 0xf8, 0xff, 0xff, 0xff,
  0xc5, 0xff, 0xff, 0xff, 0xf4, 0xff, 0xff, 0xff, 0xf7, 0xff, 0xff, 0xff,
  0xd5, 0xff, 0xff, 0xff, 0xea, 0xff, 0xff, 0xff, 0x43, 0x00, 0x00, 0x00,
  0x2a, 0x00, 0x00, 0x00, 0x00, 0x00, 0x00, 0x00, 0x19, 0x00, 0x00, 0x00,
  0x2c, 0x00, 0x00, 0x00, 0x0a, 0x00, 0x00, 0x00, 0x74, 0xff, 0xff, 0xff,
  0x17, 0x00, 0x00, 0x00, 0x07, 0x00, 0x00, 0x00, 0x00, 0x00, 0x00, 0x00,
  0xd9, 0xff, 0xff, 0xff, 0xf1, 0xff, 0xff, 0xff, 0xe2, 0xff, 0xff, 0xff,
  0x1d, 0x00, 0x00, 0x00, 0xcc, 0xff, 0xff, 0xff, 0x2e, 0x00, 0x00, 0x00,
  0x30, 0x00, 0x00, 0x00, 0x66, 0xed, 0xff, 0xff, 0x04, 0x00, 0x00, 0x00,
  0x00, 0x10, 0x00, 0x00, 0x33, 0xe5, 0x2f, 0xf8, 0xf8, 0x2a, 0xff, 0xdb,
  0x81, 0x2a, 0xed, 0x1f, 0x16, 0xef, 0xf8, 0x5c, 0xec, 0x1c, 0x1f, 0x15,
  0x36, 0xda, 0x37, 0x36, 0x29, 0xef, 0x2d, 0xf3, 0xdc, 0x09, 0xff, 0xff,
  0x0e, 0x2d, 0xf6, 0xf9, 0xfe, 0x0d, 0x1f, 0xec, 0xf4, 0xf6, 0xe5, 0xf1,
  0xb7, 0x2d, 0x34, 0xfe, 0xda, 0x31, 0x29, 0x07, 0xf5, 0xf4, 0x15, 0x19,
  0x2f, 0xfb, 0x07, 0x00, 0xfa, 0xd8, 0xd0, 0xf0, 0x0f, 0xe3, 0x15, 0x0a,
  0x0c, 0xe1, 0xe0, 0x18, 0xdc, 0x28, 0xe6, 0xf8, 0xe9, 0xfa, 0x12, 0x7f,
  0x10, 0x0f, 0x11, 0x25, 0x30, 0xda, 0x0a, 0x1e, 0xea, 0xf3, 0x2b, 0xe5,
  0xdd, 0x3b, 0x1a, 0xbe, 0xdd, 0x24, 0xd9, 0xc3, 0x0f, 0x20, 0x07, 0xf0,
  0xca, 0x11, 0x04, 0xeb, 0x0f, 0x2c, 0xe3, 0x26, 0x3f, 0x00, 0x2f, 0xe0,
  0xd7, 0xe5, 0x07, 0xef, 0x2e, 0xd5, 0x1f, 0x28, 0x16, 0xe1, 0x04, 0x05,
  0x35, 0xe4, 0x00, 0xf5, 0x2e, 0x03, 0x0c, 0x43, 0x1f, 0x14, 0x03, 0x04,
  0xef, 0xd7, 0xe3, 0x05, 0x19, 0x05, 0xf6, 0x1e, 0xcd, 0xcc, 0xf9, 0xf2,
  0xe3, 0xe8, 0x00, 0xed, 0xe3, 0xdb, 0xff, 0x0a, 0xc9, 0xf4, 0xfb, 0x10,
  0x1f, 0x03, 0x14, 0x16, 0x3f, 0xfb, 0x09, 0xff, 0x9b, 0xd4, 0x81, 0x04,
  0x3c, 0x0e, 0x0b, 0x1f, 0xe6, 0xe5, 0xe3, 0xcc, 0xf0, 0x14, 0xf4, 0xdc,
  0x20, 0x0a, 0x34, 0xe4, 0xc0, 0x1c, 0x0b, 0xe4, 0xc0, 0xfa, 0x11, 0xcc,
  0xe5, 0x2c, 0xa1, 0x18, 0x21, 0x2a, 0x00, 0x6f, 0xe7, 0xe9, 0x2f, 0xd4,
  0x34, 0xec, 0x19, 0xf8, 0x24, 0x04, 0xd3, 0xde, 0x03, 0x22, 0xe5, 0xb8,
  0x13, 0x14, 0xe4, 0xf8, 0xd5, 0x1e, 0xe0, 0x06, 0xfb, 0x07, 0x39, 0x28,
  0x4b, 0x08, 0x7f, 0xb0, 0x2c, 0xdc, 0xfd, 0x2b, 0xf7, 0x05, 0x24, 0x45,
  0x1e, 0xf2, 0x01, 0x46, 0xd7, 0x11, 0xc2, 0x37, 0x38, 0x44, 0xe4, 0x2e,
  0x27, 0x08, 0xfa, 0x40, 0x1f, 0xfe, 0x16, 0x3a, 0x02, 0xef, 0x0a, 0xcc,
  0xfe, 0x0a, 0x1c, 0x0a, 0xe9, 0x07, 0xed, 0xf1, 0xcd, 0x1a, 0x3c, 0x05,
  0x23, 0xf1, 0xf0, 0x01, 0xb9, 0x0e, 0x0f, 0x23, 0x1d, 0x01, 0x12, 0x0e,
  0x49, 0xe6, 0x04, 0x1d, 0x81, 0xe8, 0xb8, 0x08, 0x1c, 0x13, 0xf3, 0xea,
  0x0a, 0x25, 0xe7, 0xd2, 0xe5, 0x12, 0x00, 0x04, 0x0b, 0x0d, 0x21, 0x2e,
  0xe5, 0x38, 0xeb, 0x0f, 0xf0, 0x0a, 0x2d, 0x36, 0x42, 0x00, 0x0c, 0x11,
  0xcc, 0x25, 0x27, 0xbd, 0x0d, 0x02, 0x3d, 0xc7, 0xe2, 0x51, 0x28, 0x19,
  0x29, 0x0c, 0xf5, 0xc1, 0x38, 0xa4, 0x1a, 0x28, 0x0c, 0xf1, 0x0d, 0x17,
  0x13, 0xe8, 0xdd, 0xf6, 0x78, 0xef, 0x21, 0x2b, 0x81, 0x1b, 0xd7, 0x04,
  0x34, 0xe8, 0xdc, 0xf1, 0x5c, 0x08, 0xd2, 0xcd, 0x94, 0x0c, 0x30, 0xf1,
  0xef, 0x0c, 0xed, 0x1a, 0x2b, 0xda, 0x07, 0xfa, 0x1a, 0x09, 0xcd, 0x2b,
  0xf4, 0xd2, 0xeb, 0x04, 0x25, 0x07, 0x13, 0x31, 0x0d, 0x20, 0x16, 0x0b,
  0x29, 0xae, 0x10, 0x00, 0x24, 0xf3, 0x46, 0x20, 0xde, 0xf0, 0x06, 0xd3,
  0xe4, 0x12, 0xd2, 0x1e, 0x20, 0x2d, 0x2b, 0x1a, 0xea, 0x0e, 0x1c, 0x07,
  0x1a, 0x2c, 0xc2, 0x0f, 0x25, 0x81, 0x30, 0xf7, 0xec, 0xd9, 0xf5, 0x9b,
  0x1b, 0xd9, 0x10, 0x22, 0x15, 0xb9, 0x15, 0xf5, 0xc7, 0x01, 0x32, 0xfd,
  0xa2, 0x0d, 0x37, 0xf9, 0xb7, 0x33, 0xa8, 0x0d, 0x1f, 0x1b, 0x1f, 0x7f,
  0xe9, 0x0a, 0x19, 0xfb, 0x0d, 0xe4, 0x48, 0x1e, 0x26, 0xf6, 0x06, 0x21,
  0xb6, 0x0e, 0x12, 0xce, 0x05, 0xe5, 0xe4, 0x15, 0x03, 0xeb, 0xb1, 0x10,
  0x0c, 0x11, 0x1f, 0x29, 0x04, 0x2f, 0x71, 0xc3, 0x27, 0x35, 0xc2, 0x2d,
  0xdd, 0x23, 0x1c, 0x40, 0xa8, 0x0b, 0x00, 0x2a, 0xe0, 0xd1, 0xb9, 0x18,
  0x17, 0x1d, 0x56, 0xed, 0x33, 0x5a, 0x19, 0x81, 0xde, 0x56, 0xfb, 0xed,
  0x02, 0xdd, 0xdd, 0x79, 0x18, 0x32, 0x12, 0xd0, 0x3a, 0x96, 0x12, 0x0b,
  0x0c, 0xff, 0x29, 0x14, 0xa2, 0x0b, 0x17, 0x1b, 0x9a, 0x56, 0x19, 0xe1,
  0x0d, 0x4c, 0x11, 0xf3, 0x97, 0x2c, 0x38, 0xe7, 0x2d, 0x0d, 0xec, 0xdc,
  0x92, 0x2a, 0xa8, 0xe1, 0xdc, 0x08, 0x07, 0x6e, 0x40, 0xfc, 0x09, 0x66,
  0x22, 0xe7, 0xfa, 0xf1, 0xf6, 0x39, 0xe4, 0x02, 0x01, 0x0a, 0x0d, 0xe9,
  0x25, 0xf8, 0x1a, 0x38, 0x06, 0x03, 0x35, 0xf9, 0xed, 0x03, 0x11, 0x06,
  0x1b, 0x16, 0xe8, 0x0c, 0xb9, 0x11, 0xfa, 0xd2, 0x1a, 0x1a, 0xe8, 0xed,
  0x81, 0xe3, 0xed, 0x28, 0xea, 0x12, 0xf5, 0x06, 0xff, 0x1e, 0xfc, 0x26,
  0xfd, 0xfc, 0x1c, 0x09, 0xd3, 0xd2, 0xee, 0x9e, 0x31, 0x12, 0x08, 0x2d,
  0x40, 0x0d, 0x05, 0xf4, 0x01, 0x1b, 0x20, 0x12, 0x87, 0xf9, 0xca, 0xac,
  0x32, 0x39, 0xf0, 0xa8, 0x18, 0xe5, 0x11, 0xdd, 0xf9, 0x1d, 0x43, 0x89,
  0xec, 0x1c, 0x01, 0xd9, 0xe2, 0x22, 0xcc, 0x27, 0x7e, 0x2a, 0xf0, 0x24,
  0x14, 0x02, 0x91, 0x2d, 0x69, 0x12, 0xa1, 0xed, 0x23, 0x2c, 0x50, 0xe4,
  0xfa, 0x44, 0xe6, 0x36, 0xe1, 0xc2, 0x81, 0xf3, 0xe5, 0xb4, 0x0c, 0x8f,
  0x54, 0xe0, 0xde, 0xb7, 0x88, 0x07, 0x14, 0xf2, 0x3a, 0xc5, 0x30, 0x3a,
  0x0f, 0x0e, 0x54, 0xe1, 0x25, 0x36, 0x19, 0x81, 0xbd, 0x41, 0xf1, 0xef,
  0x10, 0x08, 0xf2, 0x57, 0xe0, 0x57, 0x2f, 0xd6, 0x1a, 0xa8, 0x3c, 0xbd,
  0xec, 0x04, 0xdb, 0xe6, 0xe2, 0x15, 0x10, 0x29, 0xbc, 0x3e, 0x25, 0xd4,
  0xed, 0x2c, 0xfb, 0x10, 0x97, 0x33, 0x3f, 0x07, 0x41, 0x3e, 0x3c, 0x09,
  0xc0, 0x0b, 0xb9, 0xd4, 0x0b, 0x01, 0xef, 0x55, 0x1d, 0xdf, 0x0d, 0x47,
  0x2e, 0x01, 0x22, 0x05, 0x81, 0xa9, 0xc3, 0xd2, 0x28, 0x01, 0xbd, 0xc1,
  0x08, 0x00, 0x15, 0xf9, 0x0d, 0x03, 0x24, 0x09, 0x1a, 0x2e, 0xc3, 0xd9,
  0xd3, 0x36, 0xf5, 0x02, 0xd4, 0xf3, 0xfc, 0x11, 0x32, 0xf9, 0x9a, 0x32,
  0x29, 0xe3, 0xf3, 0xe2, 0xfe, 0xf3, 0xd0, 0x12, 0x02, 0x09, 0x17, 0xec,
  0x18, 0x05, 0x0c, 0x1e, 0x27, 0x38, 0xfe, 0x2a, 0x30, 0x03, 0x16, 0x02,
  0xb9, 0x28, 0xa5, 0xfd, 0x28, 0xe3, 0x13, 0xeb, 0xd0, 0xec, 0x55, 0x3f,
  0xf4, 0x73, 0x21, 0xe9, 0x1d, 0x3c, 0xbd, 0xc1, 0x2a, 0xf7, 0xdf, 0xe7,
  0x1d, 0x35, 0x44, 0xda, 0x53, 0x92, 0x3c, 0xee, 0x24, 0x08, 0x1a, 0xcb,
  0x95, 0x39, 0xfa, 0xd7, 0xdb, 0x51, 0xe7, 0xde, 0x07, 0x19, 0x02, 0xf3,
  0x81, 0x5a, 0x47, 0xdd, 0x2a, 0x6b, 0xac, 0x1c, 0xca, 0x04, 0xf5, 0x00,
  0xd1, 0xd6, 0x25, 0x64, 0x02, 0x04, 0x14, 0x25, 0x1c, 0x00, 0xf1, 0x22,
  0xc9, 0xe3, 0x05, 0xe1, 0xbb, 0xdb, 0xec, 0x02, 0xe4, 0x1b, 0xf7, 0x0a,
  0xde, 0x00, 0x22, 0x16, 0xe6, 0x07, 0x21, 0xf0, 0xf6, 0x3d, 0xd3, 0xed,
  0xe7, 0xec, 0xc7, 0xc7, 0xfc, 0x05, 0x04, 0x1b, 0xec, 0xd8, 0x30, 0x40,
  0xef, 0xec, 0xb8, 0xf1, 0x53, 0xe2, 0xe8, 0x12, 0x81, 0x06, 0x14, 0xf9,
  0xf7, 0x04, 0x0d, 0x03, 0x90, 0xd9, 0x1a, 0xf0, 0x25, 0xf0, 0xe7, 0x06,
  0xc3, 0x19, 0xde, 0xf1, 0xdc, 0x01, 0xda, 0x2c, 0xf0, 0xe6, 0x1b, 0x52,
  0x48, 0x19, 0x3d, 0x03, 0x16, 0x12, 0xe7, 0xc8, 0x0c, 0x1b, 0x14, 0x09,
  0xfc, 0x13, 0x08, 0xf9, 0x08, 0xfc, 0xfc, 0xe9, 0x3a, 0xdd, 0xf5, 0x37,
  0xeb, 0xe8, 0x3d, 0x54, 0xee, 0x05, 0x03, 0x10, 0x7f, 0xd9, 0x14, 0x2c,
  0xa2, 0x0e, 0xff, 0x06, 0x21, 0xff, 0xea, 0x1c, 0x0a, 0xfc, 0x1c, 0xd8,
  0xe0, 0x26, 0x13, 0xd1, 0xf0, 0x2c, 0x26, 0x13, 0x8d, 0x21, 0xce, 0xe2,
  0x91, 0xd4, 0x09, 0xc7, 0x27, 0x2b, 0xd5, 0x1f, 0xd8, 0x34, 0x2a, 0x20,
  0xb9, 0x21, 0xfe, 0x25, 0x31, 0x5d, 0x18, 0x11, 0x9d, 0x27, 0xf0, 0x87,
  0x16, 0x34, 0xda, 0xdf, 0xde, 0xe9, 0xf9, 0x14, 0xe1, 0x08, 0xc6, 0x16,
  0x1d, 0xff, 0x17, 0x36, 0x41, 0x05, 0x7f, 0xd5, 0x09, 0xd0, 0xe4, 0x96,
  0x04, 0x5e, 0x10, 0x73, 0x01, 0x05, 0x2f, 0x47, 0xd7, 0xfe, 0xdb, 0x2b,
  0x17, 0xdd, 0xfa, 0xf6, 0x11, 0x30, 0x0d, 0x22, 0x25, 0xe8, 0xec, 0x13,
  0xfb, 0x0c, 0xd9, 0xee, 0xe8, 0xda, 0xf1, 0x17, 0xfe, 0xd8, 0xf8, 0x08,
  0xf5, 0xe9, 0x2a, 0x0b, 0xe2, 0xf3, 0x0f, 0x14, 0xf7, 0x1c, 0x13, 0x08,
  0xfd, 0xef, 0x13, 0x17, 0xf9, 0x11, 0xf6, 0xe2, 0xc4, 0x03, 0x81, 0x06,
  0x1b, 0x32, 0x0c, 0x16, 0xcb, 0xee, 0x21, 0xf5, 0x10, 0xf5, 0x06, 0xe4,
  0x1e, 0x28, 0x22, 0xfe, 0x00, 0xe0, 0x21, 0x03, 0xed, 0x04, 0x3c, 0x42,
  0x04, 0x1b, 0xa4, 0x13, 0x29, 0x0d, 0xc5, 0xe7, 0xff, 0x1e, 0x06, 0x15,
  0x04, 0xee, 0x3c, 0x19, 0x50, 0xf1, 0xd9, 0xe6, 0x82, 0x81, 0x3a, 0x11,
  0x20, 0x1b, 0x10, 0xed, 0xf9, 0x21, 0xf0, 0xea, 0xdf, 0xf6, 0x1a, 0x40,
  0x14, 0x27, 0x87, 0x07, 0x20, 0x21, 0xa4, 0x76, 0xc0, 0xeb, 0x0a, 0x9a,
  0x8a, 0x06, 0x0f, 0x91, 0x36, 0x15, 0xbf, 0x13, 0xe1, 0xdc, 0x2a, 0x5a,
  0x34, 0x69, 0x1a, 0xd4, 0x22, 0x4d, 0xc9, 0xf1, 0xfd, 0xdf, 0xd5, 0x0c,
  0xe3, 0x53, 0x36, 0xf0, 0x3a, 0x81, 0x4c, 0xda, 0xfd, 0xff, 0xf0, 0x06,
  0xd0, 0xd6, 0xc7, 0x1d, 0xc7, 0x41, 0xc1, 0xcc, 0x27, 0x47, 0x1f, 0x11,
  0x86, 0x33, 0x1d, 0xe9, 0xfd, 0x5b, 0x12, 0x1b, 0xf3, 0xcd, 0xa4, 0x26,
  0x11, 0xed, 0x55, 0x2b, 0x29, 0xf4, 0x27, 0x12, 0xec, 0x45, 0x1b, 0x1a,
  0xf1, 0xfd, 0xb1, 0xf6, 0xcc, 0x19, 0x36, 0x3d, 0x5c, 0x1f, 0x0b, 0x2a,
  0xe5, 0xf9, 0x1e, 0xce, 0x0b, 0xfb, 0x3a, 0xec, 0x19, 0x1a, 0x11, 0x2b,
  0x41, 0x02, 0xf8, 0x14, 0xfa, 0x92, 0xd3, 0xcf, 0xb7, 0xf6, 0x1e, 0x21,
  0x01, 0xe9, 0x1d, 0x19, 0x66, 0x11, 0x3f, 0x1a, 0x2d, 0xf2, 0xd3, 0x10,
  0xe9, 0xdb, 0xe7, 0xee, 0x3d, 0x17, 0xce, 0x89, 0x81, 0x19, 0x28, 0xf5,
  0xef, 0x29, 0x1b, 0x2d, 0x06, 0x06, 0xdc, 0xc2, 0x2d, 0x40, 0x38, 0xa0,
  0xd1, 0x15, 0xd9, 0x06, 0xfa, 0xe2, 0x2a, 0x53, 0xf4, 0x3f, 0xe9, 0xe8,
  0x0a, 0xf9, 0x14, 0xd5, 0x18, 0xf8, 0x50, 0xde, 0xd6, 0x18, 0x4e, 0xda,
  0x36, 0xd0, 0xf8, 0xc8, 0x14, 0x13, 0x0e, 0x0a, 0x81, 0x15, 0x09, 0xe4,
  0x3a, 0x3d, 0xd7, 0x23, 0x01, 0x6e, 0x4b, 0xd7, 0x11, 0xfb, 0xbb, 0x74,
  0x22, 0xef, 0xfa, 0x5d, 0xfe, 0xc9, 0x22, 0xeb, 0xa3, 0x3b, 0x04, 0x1d,
  0xbb, 0xfe, 0x06, 0x0e, 0x0c, 0xf6, 0x09, 0x1d, 0xe0, 0x28, 0x2e, 0xaa,
  0xeb, 0xed, 0x0b, 0xeb, 0x11, 0x7f, 0xe7, 0x1d, 0x16, 0x0e, 0xc5, 0xae,
  0x24, 0xf4, 0xf8, 0xef, 0x1f, 0xf0, 0xf3, 0x1b, 0xdc, 0xff, 0x8a, 0x05,
  0x33, 0xf7, 0x3c, 0x00, 0x14, 0x2d, 0x32, 0xce, 0x15, 0xd4, 0xdb, 0x34,
  0x35, 0x33, 0x09, 0x2d, 0x39, 0xf9, 0xf9, 0xe5, 0xc1, 0xf7, 0xd4, 0x03,
  0xe9, 0x34, 0xe2, 0x19, 0xd8, 0xe5, 0x2e, 0x24, 0x41, 0xe7, 0x1a, 0x51,
  0x07, 0x15, 0xfc, 0x81, 0x02, 0x1f, 0x3f, 0xe2, 0x00, 0x32, 0x13, 0x22,
  0xe5, 0xec, 0x14, 0xc8, 0x37, 0xdc, 0x22, 0x18, 0xee, 0xeb, 0x03, 0x43,
  0x0e, 0x0f, 0xee, 0xfe, 0x5c, 0x15, 0xfa, 0x37, 0x9c, 0x0f, 0x25, 0xeb,
  0x20, 0xfa, 0x08, 0x18, 0xf3, 0x36, 0xe9, 0xe4, 0xf3, 0x13, 0x42, 0x04,
  0xfe, 0x1c, 0xf0, 0x22, 0x0b, 0x1c, 0x30, 0xfa, 0x35, 0x53, 0x1c, 0xb6,
  0xf4, 0x03, 0xf9, 0xee, 0x0b, 0xdd, 0xbf, 0x19, 0x15, 0x15, 0x0a, 0xea,
  0x0b, 0xb4, 0xfe, 0xcc, 0xad, 0x17, 0x28, 0xf9, 0xce, 0x4e, 0x0f, 0x1d,
  0x83, 0x35, 0x1e, 0xc3, 0xe7, 0x2e, 0x19, 0xfc, 0x81, 0x1e, 0x26, 0x0c,
  0xf1, 0x00, 0x19, 0xf9, 0xcc, 0x44, 0xc1, 0xb9, 0x0c, 0xfc, 0x2e, 0x76,
  0x5a, 0xe2, 0xed, 0x25, 0x14, 0x1b, 0x33, 0xeb, 0xc3, 0xe1, 0x0b, 0xea,
  0xd1, 0x26, 0xff, 0x26, 0xe5, 0x04, 0xf4, 0x2b, 0xca, 0x21, 0x1c, 0x3e,
  0xec, 0xfa, 0x19, 0xfa, 0x02, 0x14, 0xfa, 0x10, 0x22, 0xe9, 0xd0, 0xca,
  0x11, 0x28, 0x23, 0xe3, 0x08, 0x2e, 0x06, 0x32, 0xf9, 0xe9, 0xba, 0xf3,
  0x4c, 0xeb, 0xed, 0xe4, 0xf8, 0xff, 0x37, 0xd9, 0x0f, 0x29, 0x15, 0x6f,
  0xce, 0x0d, 0x23, 0x32, 0x7f, 0xe8, 0xe4, 0x00, 0xbc, 0x00, 0xcd, 0xfe,
  0xb5, 0x0d, 0xe9, 0x15, 0xd0, 0x03, 0x33, 0x9b, 0xde, 0x0a, 0xc2, 0xe9,
  0xe0, 0x1d, 0x12, 0x63, 0x1f, 0x17, 0x16, 0xe7, 0x0e, 0xe4, 0x16, 0xfc,
  0xe5, 0xf9, 0xed, 0xe0, 0x27, 0x16, 0x17, 0xad, 0xc6, 0xf5, 0xe8, 0x15,
  0xf5, 0x25, 0xc3, 0x1e, 0xc7, 0x2b, 0x3e, 0x02, 0x7f, 0x15, 0x47, 0xc9,
  0x03, 0xec, 0xfa, 0xac, 0x3b, 0x07, 0x18, 0x7c, 0x45, 0x0d, 0x11, 0x7b,
  0xd2, 0x11, 0x05, 0x0a, 0xeb, 0xab, 0x3c, 0x19, 0x20, 0x1c, 0x81, 0xeb,
  0xf6, 0xd8, 0x24, 0xd9, 0x24, 0xff, 0xfe, 0xf7, 0xde, 0x10, 0xb5, 0xf8,
  0xe9, 0x05, 0xbd, 0x11, 0xbb, 0x0d, 0x2a, 0x0e, 0x0f, 0xf9, 0x86, 0x28,
  0x2d, 0x17, 0xc6, 0x18, 0xe7, 0x02, 0x1b, 0x13, 0xff, 0x11, 0x25, 0xdc,
  0x05, 0xc8, 0x6c, 0x35, 0x0e, 0xaf, 0xc3, 0x50, 0xf6, 0x16, 0x47, 0xe1,
  0xf8, 0x22, 0xb2, 0xa3, 0x1c, 0xfd, 0xfd, 0xe2, 0x04, 0x2c, 0xe5, 0x20,
  0x1f, 0x21, 0x14, 0x81, 0xee, 0x50, 0xf5, 0xdb, 0x1c, 0x15, 0x17, 0x7e,
  0x01, 0x2a, 0xed, 0x13, 0x1c, 0xa7, 0x58, 0xe8, 0xcf, 0x19, 0x47, 0xf0,
  0x09, 0x01, 0xfe, 0xec, 0xdd, 0x1b, 0xd8, 0xb2, 0xf9, 0x2d, 0x25, 0xe6,
  0xb2, 0x34, 0x21, 0xdd, 0x0d, 0x46, 0xcc, 0x37, 0xf1, 0x21, 0x1d, 0xc3,
  0x07, 0xfb, 0xdb, 0x3a, 0xf9, 0xc8, 0xf8, 0x5d, 0x10, 0x20, 0x18, 0xea,
  0xf1, 0x02, 0x15, 0x2c, 0xc6, 0xca, 0xc3, 0x36, 0x41, 0x02, 0xf6, 0x41,
  0x10, 0x01, 0x41, 0xc1, 0xfb, 0xf6, 0x13, 0xe2, 0xe1, 0x7f, 0xba, 0x03,
  0xf0, 0xf0, 0xda, 0xe8, 0xfa, 0xe5, 0x0b, 0x12, 0xfe, 0x26, 0x0a, 0x5f,
  0x1c, 0x09, 0xab, 0x1e, 0x38, 0x07, 0x2d, 0x09, 0x97, 0xf5, 0x43, 0xe7,
  0x0b, 0xe1, 0x08, 0x6d, 0xa8, 0x04, 0x13, 0xe6, 0x37, 0xfa, 0x15, 0x14,
  0xfd, 0x23, 0xda, 0xef, 0xff, 0x0f, 0x21, 0x1a, 0x29, 0x3c, 0x09, 0xda,
  0x0c, 0x11, 0xf3, 0xdd, 0xef, 0xe9, 0xf1, 0x0a, 0xf9, 0x10, 0xf7, 0x02,
  0x10, 0xbd, 0x25, 0xd7, 0xad, 0x18, 0x1d, 0xfa, 0xd8, 0x24, 0xfd, 0x1a,
  0x81, 0x22, 0x05, 0xd1, 0xf6, 0x1a, 0x03, 0x08, 0x92, 0x24, 0xf4, 0xf3,
  0xf9, 0x23, 0x2b, 0xfe, 0xc5, 0x3a, 0xd8, 0xbe, 0xd7, 0xfc, 0x0b, 0x69,
  0x5b, 0xde, 0xf3, 0x17, 0x03, 0x28, 0x32, 0x02, 0x17, 0x15, 0xd7, 0x0a,
  0xf7, 0xec, 0xf3, 0x4d, 0x3a, 0xf8, 0xf1, 0x14, 0xfd, 0xe3, 0xf4, 0xe1,
  0xf4, 0xd9, 0x15, 0x0d, 0xf8, 0x29, 0x0a, 0xe8, 0xd7, 0x02, 0x17, 0x0e,
  0xe7, 0xc9, 0xf4, 0x0b, 0x2b, 0xf8, 0x22, 0x35, 0x04, 0xef, 0x06, 0xfd,
  0x33, 0x03, 0x13, 0x26, 0x81, 0xe9, 0x9a, 0x17, 0x22, 0x04, 0x1b, 0x10,
  0x0b, 0x01, 0xf0, 0xc3, 0xc0, 0x10, 0xf6, 0x16, 0x04, 0x21, 0x1d, 0x1e,
  0x32, 0xe1, 0x1b, 0x2f, 0x0e, 0x36, 0xfb, 0xaf, 0xdc, 0x23, 0x07, 0xb8,
  0x06, 0xf1, 0xac, 0x7f, 0x04, 0x02, 0xfd, 0x02, 0xf8, 0x27, 0x13, 0xf5,
  0x8b, 0x11, 0xf9, 0xfb, 0xee, 0x3f, 0x39, 0x34, 0x8b, 0xfc, 0x33, 0xa0,
  0x2a, 0xf7, 0x06, 0xfb, 0x8f, 0x2f, 0xf5, 0xe8, 0x16, 0x20, 0xf3, 0x10,
  0xfe, 0x44, 0xfe, 0xb6, 0x14, 0xcd, 0x11, 0x3e, 0x6e, 0xec, 0xef, 0x38,
  0x21, 0x01, 0x0e, 0xe5, 0x11, 0xc5, 0x59, 0x3a, 0x07, 0x50, 0x54, 0x94,
  0x2f, 0x5c, 0xc5, 0x01, 0x30, 0x02, 0x00, 0x41, 0x14, 0x63, 0x27, 0xd9,
  0x0a, 0xa2, 0x7b, 0x04, 0xfc, 0x12, 0xd9, 0x0e, 0xbb, 0xc6, 0xe8, 0x05,
  0xe2, 0x2a, 0xf2, 0xc4, 0xfe, 0x12, 0x2e, 0xff, 0x81, 0x78, 0x38, 0xf1,
  0x2f, 0x20, 0xd1, 0x1d, 0xc1, 0x2b, 0xcf, 0x29, 0xee, 0xdd, 0x1d, 0x2b,
  0xff, 0xc7, 0x17, 0x37, 0xfd, 0x15, 0x13, 0x0d, 0xf9, 0x00, 0x04, 0x10,
  0x08, 0x06, 0x28, 0x27, 0xf9, 0x1c, 0xde, 0x03, 0x05, 0xf1, 0xd4, 0xef,
  0x13, 0xea, 0x1f, 0x1b, 0x0b, 0xce, 0x24, 0x29, 0x67, 0x13, 0xee, 0x0c,
  0x9e, 0xcd, 0x0b, 0xf9, 0x12, 0x0c, 0xf3, 0xed, 0x0c, 0x17, 0xef, 0xfa,
  0x10, 0x11, 0x07, 0x12, 0x0b, 0x20, 0x9d, 0xff, 0x19, 0x0e, 0xdc, 0x55,
  0xed, 0xe7, 0x0c, 0xbd, 0x81, 0xfa, 0x27, 0xd2, 0x1d, 0x0e, 0xdd, 0x23,
  0xd8, 0x1f, 0x40, 0x32, 0x1c, 0x65, 0x32, 0x81, 0xed, 0x2f, 0xe2, 0xf1,
  0xe6, 0xfc, 0xe2, 0x49, 0x05, 0x47, 0xe8, 0xe6, 0x40, 0x92, 0x07, 0x91,
  0xf9, 0xe5, 0x27, 0x32, 0xd4, 0x1e, 0xdd, 0xf1, 0x83, 0x3a, 0x0b, 0xdd,
  0x16, 0x44, 0xeb, 0x0a, 0xa8, 0x1f, 0x1e, 0xea, 0x24, 0x40, 0x5d, 0xcb,
  0xa0, 0x37, 0xe1, 0xb3, 0x1b, 0xe4, 0x26, 0x38, 0x45, 0xf8, 0xe4, 0x52,
  0x34, 0xf6, 0x0f, 0xed, 0xe5, 0xc3, 0x04, 0x13, 0xd1, 0xcd, 0x2d, 0xef,
  0xd5, 0x33, 0xcb, 0x08, 0x2d, 0x0a, 0xf9, 0x54, 0xfd, 0x0a, 0xf9, 0xf5,
  0x31, 0xe8, 0x51, 0x4e, 0x2a, 0xe2, 0xea, 0xfd, 0xb1, 0xea, 0xce, 0xcf,
  0x22, 0x25, 0xed, 0xfe, 0xe8, 0xf8, 0x0c, 0x05, 0xd7, 0x15, 0x0f, 0x03,
  0x07, 0x44, 0xd6, 0xdd, 0x2e, 0xdc, 0xf3, 0x3d, 0xb8, 0x04, 0xf9, 0x0e,
  0x81, 0xff, 0x0a, 0xe6, 0x23, 0xcf, 0xd6, 0x0d, 0x37, 0xe8, 0x1f, 0x19,
  0x2f, 0x3a, 0xf8, 0xf6, 0x1e, 0xda, 0x04, 0x0f, 0xed, 0xe8, 0xd0, 0xcc,
  0x19, 0xf2, 0x20, 0x1d, 0xe9, 0xce, 0x0a, 0xf8, 0xc7, 0xe3, 0x14, 0x16,
  0x18, 0x29, 0xd1, 0x17, 0xc5, 0x3e, 0xd8, 0x0e, 0xdd, 0xe5, 0x0b, 0x06,
  0xf4, 0x1a, 0xe3, 0xef, 0xb8, 0x0f, 0x90, 0x10, 0xee, 0x16, 0xf6, 0xa7,
  0xe3, 0x19, 0x03, 0x60, 0x7f, 0x19, 0x05, 0xdd, 0xf0, 0x60, 0x27, 0x06,
  0xff, 0xce, 0x3f, 0x3d, 0x1a, 0x5e, 0x26, 0x99, 0xed, 0x58, 0xfa, 0xd9,
  0xfa, 0x07, 0xf8, 0x2a, 0x1f, 0x37, 0x36, 0x0b, 0x13, 0xce, 0x3c, 0x0d,
  0xd8, 0xe3, 0xfa, 0x15, 0xb3, 0x0b, 0xf8, 0xf8, 0x81, 0x2b, 0x0f, 0xcb,
  0xf7, 0x3f, 0x0c, 0x0b, 0x84, 0x52, 0x3a, 0xfd, 0x20, 0x2b, 0xf3, 0xfe,
  0xe4, 0x4b, 0xc5, 0xfa, 0x07, 0xf9, 0x34, 0x12, 0x3f, 0xd3, 0xf9, 0x4d,
  0xf3, 0x15, 0x0d, 0x26, 0x04, 0xed, 0x24, 0x19, 0x2f, 0x3e, 0x10, 0x81,
  0xac, 0x30, 0xd3, 0x1b, 0x1f, 0xf3, 0x02, 0x62, 0xfe, 0x38, 0x21, 0xe8,
  0x33, 0xa8, 0x34, 0xeb, 0xea, 0x08, 0x33, 0x10, 0xf4, 0x11, 0x19, 0x10,
  0xea, 0x1e, 0x10, 0xfd, 0xfb, 0x30, 0x1b, 0xf6, 0xd5, 0x0f, 0x2c, 0x0e,
  0x1d, 0x0e, 0x62, 0xe7, 0xa6, 0x1c, 0xec, 0xe1, 0x15, 0x24, 0xf0, 0x49,
  0x19, 0xfa, 0xf5, 0x57, 0x15, 0xee, 0x03, 0xf3, 0xdb, 0x2b, 0x19, 0xfa,
  0xf8, 0xe8, 0x19, 0xc1, 0xe3, 0x04, 0xe7, 0x2a, 0x2e, 0x25, 0x28, 0x49,
  0xf7, 0x17, 0x34, 0x29, 0x3d, 0x22, 0xf8, 0xd2, 0xd3, 0x06, 0xfb, 0xd8,
  0x21, 0x17, 0x01, 0xd2, 0xe4, 0x0e, 0x2b, 0x27, 0x10, 0x05, 0xbf, 0xee,
  0xff, 0xf5, 0x29, 0x0c, 0xda, 0x28, 0x7f, 0xe5, 0xee, 0x43, 0x18, 0xf7,
  0x10, 0x42, 0x21, 0x65, 0x44, 0x10, 0xf7, 0x2e, 0x07, 0xe5, 0xd6, 0x08,
  0x6b, 0x26, 0x03, 0x2b, 0x3a, 0xe9, 0xf4, 0x52, 0xfd, 0xd8, 0x00, 0xe5,
  0xee, 0xf9, 0x2b, 0xec, 0xd4, 0xd8, 0x3b, 0x1d, 0xe8, 0xcb, 0xf3, 0x13,
  0x3a, 0x1a, 0x50, 0xe7, 0xee, 0xda, 0xdb, 0xd4, 0x33, 0xc2, 0xed, 0x04,
  0xeb, 0x24, 0x16, 0xdb, 0x35, 0xe4, 0x0b, 0xfe, 0x5f, 0xf0, 0x81, 0xf6,
  0x28, 0xa9, 0xe4, 0xd6, 0x04, 0xd8, 0xac, 0x2c, 0xd0, 0x06, 0x02, 0xec,
  0x02, 0xde, 0xe6, 0x0a, 0x03, 0x1c, 0x29, 0xed, 0x22, 0x51, 0x24, 0x1a,
  0x17, 0xe9, 0x0f, 0xec, 0xf4, 0xdc, 0x17, 0x1c, 0xf9, 0xe8, 0xf8, 0xd1,
  0x11, 0xd5, 0x12, 0x09, 0x27, 0xea, 0x33, 0xe7, 0xee, 0x23, 0xec, 0xd2,
  0x46, 0xe1, 0xcb, 0xe8, 0x08, 0xfe, 0x0d, 0x11, 0xf3, 0x0c, 0xe7, 0xf4,
  0x2f, 0xfc, 0x81, 0x11, 0x01, 0x2d, 0x1a, 0xe4, 0xe2, 0x0a, 0xb8, 0x18,
  0x6b, 0xe5, 0xf1, 0x2d, 0x0c, 0xc3, 0x36, 0xd9, 0x92, 0x00, 0xde, 0x1b,
  0x8d, 0xe9, 0x28, 0xcc, 0xdb, 0x0b, 0xba, 0x08, 0x00, 0xfc, 0x03, 0x7f,
  0x0f, 0xfb, 0x34, 0x06, 0x11, 0x4e, 0x34, 0xd4, 0x16, 0x19, 0xce, 0xd2,
  0xf8, 0xd9, 0xe8, 0xa2, 0xac, 0xe3, 0xfc, 0x28, 0xe7, 0xee, 0x8d, 0xe1,
  0x1d, 0xf9, 0x38, 0x18, 0x14, 0xff, 0x06, 0xaa, 0x0c, 0xe8, 0xbc, 0x32,
  0x1c, 0x32, 0xda, 0x48, 0xbf, 0xda, 0x0b, 0x3b, 0xdc, 0xde, 0xe4, 0x2f,
  0xd8, 0xf3, 0xb5, 0xd6, 0x25, 0x7f, 0xe7, 0x94, 0x21, 0xe5, 0x0c, 0xe0,
  0x13, 0x22, 0x1f, 0x17, 0x0f, 0x36, 0xb7, 0xc5, 0xbe, 0x1c, 0xb7, 0xf5,
  0x38, 0x17, 0x2c, 0xf3, 0xed, 0x10, 0x06, 0xe2, 0x74, 0xe4, 0xeb, 0xe3,
  0xed, 0xfe, 0x26, 0x06, 0xe3, 0x23, 0x16, 0xd3, 0x18, 0x04, 0xd2, 0x19,
  0xfa, 0x41, 0x1c, 0xd5, 0x29, 0xf1, 0xa2, 0x46, 0x00, 0xe8, 0xf2, 0x45,
  0x3b, 0xa4, 0x34, 0xf8, 0x35, 0x14, 0x0a, 0x0f, 0x1e, 0x02, 0x29, 0x28,
  0x3e, 0x02, 0x09, 0x07, 0x0c, 0x10, 0xe0, 0xc9, 0xf0, 0xe2, 0x07, 0x0e,
  0xf0, 0xe0, 0x10, 0x12, 0x24, 0xfb, 0x26, 0xfa, 0xe5, 0xd3, 0xfb, 0x0d,
  0xfc, 0x03, 0x00, 0x21, 0xf1, 0xf3, 0x1f, 0xf7, 0x2f, 0xf4, 0x0d, 0x1f,
  0xa6, 0xfc, 0x81, 0x18, 0x02, 0xf0, 0xeb, 0x22, 0x0e, 0xfb, 0xf3, 0xa5,
  0x86, 0xf6, 0x27, 0xe5, 0x19, 0x06, 0x17, 0xff, 0x2c, 0xfd, 0x12, 0x23,
  0x29, 0x35, 0x17, 0x29, 0x09, 0x11, 0xf9, 0xf3, 0x0d, 0x03, 0xd5, 0xc8,
  0x1a, 0xcc, 0xf3, 0x24, 0x19, 0xd4, 0x2d, 0x16, 0x1b, 0x05, 0x0f, 0xec,
  0xee, 0xfa, 0xfd, 0x19, 0xc9, 0x10, 0x01, 0x0e, 0xf1, 0x04, 0x24, 0xf4,
  0xff, 0xf9, 0x18, 0xf9, 0xc3, 0x06, 0x81, 0x2f, 0xff, 0xff, 0xec, 0x13,
  0x0a, 0xec, 0x15, 0xd2, 0xb7, 0xfe, 0x17, 0xe6, 0x25, 0x42, 0x09, 0xf3,
  0x82, 0x0c, 0xe6, 0x1d, 0xc6, 0xf3, 0x02, 0xf9, 0x2b, 0x15, 0x06, 0x2b,
  0xd2, 0xf7, 0x1f, 0xbe, 0xe0, 0x0d, 0x2b, 0xd8, 0x0e, 0x4a, 0xe7, 0x06,
  0x17, 0x05, 0xcd, 0xc5, 0x1c, 0xfd, 0x08, 0xf8, 0x05, 0xf5, 0xd9, 0x25,
  0xd7, 0xf6, 0xa3, 0x15, 0x10, 0xdc, 0x11, 0x27, 0xeb, 0x14, 0x7f, 0xd4,
  0x28, 0xbd, 0xec, 0x17, 0x2f, 0x24, 0xf3, 0x1f, 0xf5, 0xf9, 0x26, 0x0d,
  0xe0, 0xea, 0xea, 0x2e, 0xa6, 0xef, 0xe4, 0x01, 0xb2, 0xfe, 0x21, 0x0d,
  0x1d, 0x29, 0xb9, 0x0c, 0x0f, 0x09, 0xfd, 0x4f, 0xef, 0x15, 0x0c, 0xf6,
  0x0d, 0xfa, 0x2e, 0x1f, 0x30, 0x11, 0xeb, 0x11, 0xda, 0xfe, 0xf2, 0xca,
  0x17, 0xf5, 0xe5, 0x02, 0xf7, 0xfa, 0xb8, 0xfa, 0xe5, 0xf7, 0x05, 0x23,
  0x14, 0x28, 0x33, 0xe2, 0x4a, 0xf8, 0xee, 0x7f, 0x0f, 0x21, 0xfe, 0xfb,
  0x9a, 0xff, 0x0e, 0x33, 0xfb, 0x09, 0xf2, 0xff, 0xf4, 0x0d, 0xa2, 0x0a,
  0xcb, 0x9f, 0x9f, 0x0c, 0x20, 0x9d, 0xb9, 0xca, 0xe5, 0x40, 0x08, 0x0e,
  0xd3, 0xf6, 0xa0, 0x36, 0x95, 0x5a, 0xa3, 0xc9, 0xfe, 0x00, 0xc5, 0xcd,
  0x1d, 0x0b, 0x49, 0x39, 0x43, 0xe5, 0x18, 0xfd, 0xd5, 0xfe, 0x16, 0x37,
  0x38, 0xab, 0x1f, 0xe8, 0xdd, 0xe1, 0xda, 0x54, 0x94, 0xb3, 0x34, 0xca,
  0xf6, 0xa7, 0x56, 0xf1, 0x18, 0x0b, 0x9c, 0x0a, 0x2b, 0x7f, 0xe3, 0xcb,
  0x1f, 0xf4, 0x5b, 0x09, 0xdd, 0xf3, 0x36, 0x8c, 0x83, 0x3f, 0xdc, 0xf6,
  0xf3, 0xfc, 0xfe, 0x7f, 0x09, 0x10, 0xf9, 0xdf, 0x3b, 0xc6, 0x1d, 0x23,
  0x0a, 0xfc, 0x08, 0xf6, 0xa3, 0xfa, 0x05, 0xf8, 0xff, 0x37, 0x0f, 0xf4,
  0x26, 0x3b, 0xf7, 0x10, 0xb2, 0x2b, 0x0a, 0x21, 0x21, 0x28, 0x1a, 0xdb,
  0xf8, 0x43, 0xc3, 0xd1, 0xe8, 0xef, 0x0a, 0x2b, 0xc6, 0x07, 0xec, 0x26,
  0x16, 0x02, 0xc7, 0x23, 0x4b, 0x2f, 0xf0, 0x08, 0x23, 0x08, 0xd8, 0x1e,
  0x35, 0xc6, 0x13, 0x26, 0xec, 0xf4, 0xe4, 0xf0, 0xea, 0xeb, 0xe2, 0x20,
  0xd0, 0xce, 0xeb, 0xf7, 0x13, 0x09, 0x36, 0x16, 0xed, 0xef, 0x23, 0x23,
  0x19, 0xd4, 0x0e, 0x12, 0x08, 0x2a, 0x49, 0xf7, 0x1e, 0xf3, 0xd6, 0xf5,
  0xd5, 0xca, 0xb5, 0x11, 0x0d, 0xa2, 0x07, 0x1a, 0xfe, 0xf8, 0xcc, 0x81,
  0xdd, 0xee, 0x0c, 0x0c, 0x0f, 0x15, 0xff, 0x07, 0x24, 0xf2, 0xd6, 0x23,
  0x19, 0x13, 0xfc, 0x25, 0x31, 0xd4, 0xec, 0x10, 0x0a, 0x01, 0xed, 0xf1,
  0x12, 0xe6, 0xfe, 0x06, 0xee, 0xde, 0x0c, 0xf1, 0xd4, 0xfe, 0x2c, 0x13,
  0x03, 0xe9, 0xf9, 0x0a, 0x1f, 0x00, 0x0d, 0x19, 0x0a, 0x24, 0x33, 0xfe,
  0x0b, 0x0a, 0x09, 0xee, 0x81, 0xe0, 0x97, 0x0d, 0x06, 0xc2, 0xe9, 0x03,
  0x2c, 0xf2, 0xe7, 0xc3, 0xcf, 0xe6, 0xf6, 0xff, 0x1f, 0xe6, 0x1c, 0x18,
  0x20, 0xfc, 0x30, 0xf6, 0xfc, 0x33, 0x0f, 0x1e, 0xe7, 0x22, 0x1c, 0xe0,
  0x21, 0xf8, 0xa8, 0x3c, 0xfe, 0xd8, 0xe3, 0x3a, 0xdc, 0xf0, 0x07, 0x34,
  0xad, 0xeb, 0x19, 0x03, 0xf3, 0x60, 0x45, 0xf3, 0x32, 0x0f, 0x24, 0xd4,
  0xf0, 0x07, 0x1b, 0x00, 0x93, 0xe0, 0xf8, 0x02, 0xef, 0xe4, 0x4a, 0xe3,
  0x1f, 0x4c, 0x23, 0xbb, 0xbc, 0xfb, 0x07, 0x56, 0x7f, 0x13, 0xf2, 0xef,
  0x2c, 0x38, 0xf3, 0xe7, 0xdb, 0xd8, 0x28, 0x19, 0xed, 0x2d, 0x29, 0x81,
  0xbe, 0x2c, 0xcb, 0x11, 0x1e, 0x0a, 0x11, 0x79, 0x27, 0x0c, 0x22, 0xda,
  0x11, 0xaa, 0x39, 0x19, 0x02, 0xe8, 0xf0, 0x28, 0xec, 0xff, 0xfe, 0xc6,
  0x19, 0xfb, 0xe5, 0xf4, 0xfa, 0x2d, 0x07, 0xfd, 0xe5, 0xf9, 0x04, 0x06,
  0x31, 0x32, 0x48, 0xda, 0xf4, 0x1d, 0x0b, 0xd7, 0x0a, 0xfc, 0x14, 0x3e,
  0xe2, 0x12, 0xfa, 0x2b, 0xfb, 0xd6, 0x03, 0x07, 0x2d, 0x2e, 0xe0, 0x14,
  0xe6, 0x3e, 0xfa, 0x4e, 0x40, 0x14, 0x24, 0x51, 0x2a, 0x05, 0x3c, 0xa7,
  0x12, 0x16, 0x13, 0x24, 0x08, 0xe9, 0xdd, 0x21, 0xeb, 0xdf, 0x3d, 0xce,
  0x2a, 0xdb, 0x00, 0x36, 0x93, 0xda, 0xfc, 0x63, 0xe1, 0x22, 0x0d, 0xf2,
  0x31, 0x2a, 0x29, 0x26, 0x81, 0xdd, 0xa1, 0x15, 0xfa, 0xec, 0x06, 0xc5,
  0x4e, 0x23, 0xd6, 0xc7, 0xe0, 0x1a, 0x3d, 0xdf, 0xeb, 0x13, 0x56, 0x28,
  0xd0, 0xd5, 0xd4, 0x0b, 0xf1, 0xf8, 0xf7, 0x0d, 0x1c, 0x02, 0x0c, 0xf4,
  0xdd, 0xef, 0x1a, 0xb3, 0x08, 0xf5, 0xf5, 0xf1, 0x06, 0x40, 0xe6, 0xfe,
  0xd2, 0x10, 0xe8, 0xf9, 0x25, 0xb2, 0x0e, 0xee, 0x16, 0x12, 0xe8, 0x4e,
  0xef, 0xf4, 0xea, 0x05, 0x7f, 0xe3, 0x0c, 0x10, 0xd1, 0xcf, 0x35, 0x1b,
  0x05, 0xf7, 0x04, 0x47, 0xed, 0xe1, 0x14, 0xd3, 0x2a, 0xfb, 0x0b, 0x03,
  0xd0, 0x36, 0x03, 0x08, 0x87, 0x27, 0xe6, 0x22, 0xd8, 0xb9, 0x13, 0xd4,
  0x39, 0xeb, 0xe4, 0x2a, 0xed, 0xf5, 0x38, 0xed, 0xf7, 0x00, 0x3a, 0x21,
  0xfb, 0x4f, 0xf3, 0xed, 0x92, 0xef, 0xef, 0xb3, 0x5e, 0x0d, 0xe0, 0xd8,
  0xa0, 0xe4, 0xf2, 0x15, 0xf4, 0xda, 0xaf, 0xe9, 0x31, 0xff, 0x24, 0x44,
  0x2b, 0x41, 0x7c, 0xb2, 0xd7, 0x81, 0xdf, 0x90, 0x44, 0x53, 0xe1, 0x4d,
  0x11, 0xf9, 0xf9, 0x04, 0x8f, 0xfa, 0xff, 0x34, 0xe4, 0xc4, 0xb2, 0xe7,
  0xc2, 0x29, 0xd3, 0xee, 0x86, 0xeb, 0xb2, 0x17, 0x1c, 0xc0, 0xd2, 0x2f,
  0xa4, 0x26, 0xe4, 0xc8, 0xe0, 0xbc, 0x2b, 0xc4, 0xb4, 0xce, 0xa9, 0xa5,
  0xa4, 0x18, 0x0d, 0x29, 0xdb, 0xa9, 0x22, 0xd2, 0xdf, 0xfe, 0x2b, 0x31,
  0xff, 0x03, 0xc6, 0xd8, 0xbb, 0xb3, 0xaa, 0x02, 0x23, 0xd4, 0x32, 0xc7,
  0xb9, 0xe5, 0xdc, 0x81, 0x3d, 0xff, 0xc5, 0x14, 0x04, 0xd3, 0x07, 0x12,
  0x11, 0x67, 0xc7, 0x04, 0xfb, 0xfe, 0x34, 0x39, 0x3d, 0xe4, 0x06, 0x64,
  0xf1, 0x1d, 0x3b, 0x93, 0xdb, 0x40, 0x52, 0xd4, 0xf3, 0x72, 0x09, 0x36,
  0xba, 0x0f, 0x00, 0x22, 0x53, 0xb2, 0x04, 0xf3, 0xb3, 0xfc, 0x1e, 0x7f,
  0x10, 0x16, 0xfd, 0x1b, 0x54, 0x21, 0x1f, 0x5e, 0xa4, 0xd4, 0x55, 0x17,
  0x1f, 0xea, 0xf2, 0xcd, 0x18, 0x47, 0x04, 0xbd, 0xba, 0xe6, 0x55, 0x05,
  0x07, 0x4a, 0x11, 0x24, 0xfa, 0x00, 0xa4, 0xc5, 0x25, 0x2f, 0x22, 0x81,
  0x16, 0x11, 0xea, 0x00, 0x09, 0xf1, 0x2c, 0x62, 0x30, 0xfc, 0x1a, 0xec,
  0x22, 0xe4, 0x19, 0xdf, 0xf0, 0x03, 0x58, 0x28, 0x06, 0x2f, 0x1c, 0xcb,
  0x0e, 0xee, 0x01, 0xbe, 0x13, 0x2c, 0x12, 0xee, 0xb1, 0x2a, 0x2e, 0xf4,
  0x2a, 0x12, 0xc7, 0x05, 0x04, 0x47, 0x4a, 0xd8, 0x0c, 0xef, 0xab, 0x42,
  0x09, 0xdd, 0xf2, 0x1d, 0x1c, 0xea, 0x3f, 0xe9, 0x3b, 0xf3, 0xdd, 0x0f,
  0x1f, 0xfe, 0x23, 0x28, 0x0f, 0xf4, 0x29, 0x0e, 0x0d, 0x04, 0xfb, 0xc0,
  0x0d, 0xfa, 0x06, 0x1e, 0xdf, 0x01, 0x1c, 0x18, 0xea, 0x0f, 0x05, 0xfd,
  0x0a, 0xec, 0x05, 0x0f, 0xf5, 0xfe, 0x09, 0x44, 0x0e, 0xfa, 0x3e, 0x0d,
  0x2b, 0xeb, 0x11, 0x34, 0x99, 0xf6, 0x81, 0x08, 0x21, 0x20, 0x18, 0x0a,
  0x25, 0x09, 0xf4, 0xb0, 0x9b, 0x1d, 0x2a, 0xe4, 0xff, 0x1d, 0xfe, 0x27,
  0x26, 0xf6, 0xbd, 0x21, 0x0c, 0x12, 0xf1, 0x2e, 0x27, 0xc8, 0xdc, 0x05,
  0x21, 0x03, 0xee, 0xc5, 0x05, 0xe7, 0xdb, 0x0c, 0xc0, 0xcd, 0x13, 0x0c,
  0xb4, 0x07, 0x2e, 0x18, 0xce, 0xef, 0x0a, 0x0a, 0x1b, 0xdc, 0x1f, 0x25,
  0x07, 0xed, 0x34, 0xe7, 0x25, 0x01, 0x07, 0x16, 0xb0, 0xe1, 0x81, 0x13,
  0x11, 0xf6, 0x23, 0x13, 0xe4, 0xd5, 0xef, 0x9d, 0xcb, 0xed, 0xfa, 0x0e,
  0x32, 0x23, 0x08, 0x24, 0x26, 0xef, 0x54, 0x94, 0x21, 0x86, 0xa4, 0xf8,
  0xd1, 0xe4, 0x44, 0x30, 0xab, 0xe6, 0x02, 0x44, 0x92, 0x51, 0xdb, 0x2f,
  0xd5, 0xd1, 0x98, 0x06, 0xc8, 0x09, 0xd5, 0x50, 0x9d, 0x35, 0x24, 0x29,
  0xb6, 0x11, 0xe2, 0x3b, 0x16, 0xe6, 0xbe, 0xe2, 0xdb, 0xe6, 0xfb, 0x8b,
  0x9d, 0xfc, 0xa9, 0xa4, 0xfb, 0xd5, 0xc9, 0xc4, 0x2e, 0xf1, 0x23, 0x2f,
  0xe9, 0x6b, 0xa3, 0x26, 0x81, 0x4e, 0x42, 0x92, 0x72, 0xfd, 0xff, 0xff,
  0x04, 0x00, 0x00, 0x00, 0x00, 0x01, 0x00, 0x00, 0xf4, 0xff, 0xff, 0xff,
  0xf7, 0xff, 0xff, 0xff, 0x22, 0x00, 0x00, 0x00, 0x02, 0x00, 0x00, 0x00,
  0x06, 0x00, 0x00, 0x00, 0xfb, 0xff, 0xff, 0xff, 0x13, 0x00, 0x00, 0x00,
  0x3a, 0x00, 0x00, 0x00, 0x08, 0x00, 0x00, 0x00, 0x07, 0x00, 0x00, 0x00,
  0x36, 0x00, 0x00, 0x00, 0x0c, 0x00, 0x00, 0x00, 0x31, 0x00, 0x00, 0x00,
  0xea, 0xff, 0xff, 0xff, 0xdb, 0xff, 0xff, 0xff, 0xee, 0xff, 0xff, 0xff,
  0xa1, 0xff, 0xff, 0xff, 0x0c, 0x00, 0x00, 0x00, 0x19, 0x00, 0x00, 0x00,
  0xdd, 0xff, 0xff, 0xff, 0x20, 0x00, 0x00, 0x00, 0xef, 0xff, 0xff, 0xff,
  0xe8, 0xff, 0xff, 0xff, 0xc7, 0xff, 0xff, 0xff, 0x00, 0x00, 0x00, 0x00,
  0x0a, 0x00, 0x00, 0x00, 0xf1, 0xff, 0xff, 0xff, 0xdc, 0xff, 0xff, 0xff,
  0xe4, 0xff, 0xff, 0xff, 0x0a, 0x00, 0x00, 0x00, 0x08, 0x00, 0x00, 0x00,
  0xf7, 0xff, 0xff, 0xff, 0x0a, 0x00, 0x00, 0x00, 0xd7, 0xff, 0xff, 0xff,
  0xf9, 0xff, 0xff, 0xff, 0x09, 0x00, 0x00, 0x00, 0x04, 0x00, 0x00, 0x00,
  0x0d, 0x00, 0x00, 0x00, 0xde, 0xff, 0xff, 0xff, 0x15, 0x00, 0x00, 0x00,
  0x00, 0x00, 0x00, 0x00, 0xe2, 0xff, 0xff, 0xff, 0x1d, 0x00, 0x00, 0x00,
  0xfb, 0xff, 0xff, 0xff, 0x14, 0x00, 0x00, 0x00, 0x19, 0x00, 0x00, 0x00,
  0x0e, 0x00, 0x00, 0x00, 0xdb, 0xff, 0xff, 0xff, 0xf5, 0xff, 0xff, 0xff,
  0xc8, 0xff, 0xff, 0xff, 0x26, 0x00, 0x00, 0x00, 0xf8, 0xff, 0xff, 0xff,
  0x06, 0x00, 0x00, 0x00, 0x07, 0x00, 0x00, 0x00, 0x04, 0x00, 0x00, 0x00,
  0x18, 0x00, 0x00, 0x00, 0x17, 0x00, 0x00, 0x00, 0xfe, 0xff, 0xff, 0xff,
  0x00, 0x00, 0x00, 0x00, 0x26, 0x00, 0x00, 0x00, 0xef, 0xff, 0xff, 0xff,
  0x0d, 0x00, 0x00, 0x00, 0x10, 0x00, 0x00, 0x00, 0x72, 0xff, 0xff, 0xff,
  0x7e, 0xfe, 0xff, 0xff, 0x04, 0x00, 0x00, 0x00, 0x40, 0x01, 0x00, 0x00,
  0xf0, 0x81, 0xa3, 0x64, 0xb1, 0x14, 0x9a, 0x3e, 0x13, 0xe2, 0x5c, 0x22,
  0x02, 0x01, 0xc0, 0x02, 0x3e, 0xb0, 0x02, 0x29, 0xfa, 0xa5, 0x26, 0x0e,
  0xc7, 0x16, 0x3b, 0x9f, 0xd5, 0xd6, 0xc4, 0xea, 0xd0, 0x24, 0x1b, 0x1e,
  0x52, 0x9c, 0xf4, 0x37, 0x00, 0x9f, 0xc4, 0x5d, 0xfb, 0xf6, 0xbe, 0x4a,
  0x60, 0x2a, 0x42, 0xc4, 0xba, 0xa9, 0x52, 0xe5, 0xf1, 0x32, 0x12, 0x0f,
  0xb8, 0xf4, 0xae, 0x05, 0xc6, 0xf4, 0x0b, 0xf5, 0x29, 0x14, 0xea, 0xf4,
  0xca, 0x29, 0xed, 0xbf, 0x1a, 0xaf, 0x65, 0x37, 0x34, 0x03, 0xd6, 0xbf,
  0xfc, 0xf8, 0x32, 0x33, 0xef, 0x2c, 0xe2, 0x7f, 0xc2, 0x43, 0xf4, 0x1b,
  0x0a, 0xb9, 0xcd, 0xbd, 0xe7, 0x0d, 0xa9, 0xdc, 0x19, 0x0a, 0xff, 0x03,
  0xf4, 0xff, 0xe5, 0x27, 0xe5, 0x27, 0xc7, 0xc9, 0xe8, 0x14, 0xc2, 0x26,
  0x08, 0x33, 0x01, 0x2f, 0xd9, 0x1a, 0xd9, 0xff, 0xd5, 0xe7, 0x16, 0xda,
  0x1f, 0xf8, 0x2e, 0xc5, 0x18, 0x21, 0x3c, 0x07, 0xea, 0x1f, 0x81, 0xfa,
  0xef, 0x27, 0xd5, 0x1e, 0xf5, 0x34, 0xc0, 0x01, 0x14, 0x8e, 0xdd, 0xfb,
  0xf0, 0xa3, 0x1a, 0x09, 0xa5, 0x13, 0xe9, 0x15, 0xde, 0x2c, 0x00, 0x10,
  0xc6, 0x4f, 0x33, 0xb0, 0x41, 0x25, 0x39, 0xca, 0x98, 0xdb, 0xe8, 0x2a,
  0x3e, 0xc0, 0xda, 0x29, 0xc6, 0xef, 0xfd, 0x06, 0x35, 0x37, 0x24, 0x15,
  0x0c, 0x1d, 0x25, 0xf0, 0x04, 0x06, 0x3c, 0x02, 0xf1, 0xd2, 0xc8, 0xdd,
  0xb0, 0xf8, 0x19, 0x1d, 0xc6, 0x2d, 0x4c, 0x04, 0xfb, 0xa3, 0xdf, 0x0d,
  0xb4, 0x06, 0xc9, 0xb4, 0xdd, 0x27, 0x9e, 0x32, 0xae, 0x00, 0x4a, 0xca,
  0x30, 0xe9, 0xe4, 0xe2, 0xc7, 0x07, 0xe1, 0xe7, 0x81, 0x24, 0x2e, 0xde,
  0x14, 0x05, 0x03, 0x37, 0x0b, 0xe6, 0xeb, 0x02, 0x15, 0xcd, 0x15, 0xfc,
  0xa9, 0x28, 0x55, 0xff, 0x4d, 0x49, 0xd9, 0x11, 0xa9, 0x9b, 0x0b, 0x1d,
  0x55, 0xe6, 0xbd, 0x40, 0x21, 0x20, 0x0e, 0x9f, 0x0e, 0x26, 0x01, 0x3e,
  0xaf, 0x6a, 0xf1, 0xaa, 0x4a, 0x3b, 0x12, 0xea, 0x57, 0xe0, 0x7f, 0xa4,
  0x7d, 0x35, 0xe6, 0x4c, 0x25, 0x0a, 0x35, 0x45, 0x30, 0xcf, 0x00, 0x09,
  0x2c, 0xb2, 0xfe, 0xdc, 0xf5, 0xcd, 0x40, 0xbf, 0xa4, 0x45, 0x1d, 0xc8,
  0xec, 0xed, 0x0a, 0xb0, 0x6a, 0xb5, 0xb9, 0xdd, 0xca, 0xff, 0xff, 0xff,
  0x04, 0x00, 0x00, 0x00, 0x14, 0x00, 0x00, 0x00, 0x09, 0x02, 0x00, 0x00,
  0x5e, 0x01, 0x00, 0x00, 0x34, 0x00, 0x00, 0x00, 0xf4, 0x00, 0x00, 0x00,
  0xd0, 0xff, 0xff, 0xff, 0xea, 0xff, 0xff, 0xff, 0x04, 0x00, 0x00, 0x00,
  0x08, 0x00, 0x00, 0x00, 0xff, 0xff, 0xff, 0xff, 0x40, 0x00, 0x00, 0x00,
  0x00, 0x00, 0x06, 0x00, 0x08, 0x00, 0x04, 0x00, 0x06, 0x00, 0x00, 0x00,
  0x04, 0x00, 0x00, 0x00, 0x08, 0x00, 0x00, 0x00, 0x01, 0x00, 0x00, 0x00,
  0x02, 0x00, 0x00, 0x00, 0xa8, 0xd7, 0xff, 0xff, 0xac, 0xd7, 0xff, 0xff,
  0x0f, 0x00, 0x00, 0x00, 0x4d, 0x4c, 0x49, 0x52, 0x20, 0x43, 0x6f, 0x6e,
  0x76, 0x65, 0x72, 0x74, 0x65, 0x64, 0x2e, 0x00, 0x01, 0x00, 0x00, 0x00,
  0x14, 0x00, 0x00, 0x00, 0x00, 0x00, 0x0e, 0x00, 0x18, 0x00, 0x14, 0x00,
  0x10, 0x00, 0x0c, 0x00, 0x08, 0x00, 0x04, 0x00, 0x0e, 0x00, 0x00, 0x00,
  0x14, 0x00, 0x00, 0x00, 0x1c, 0x00, 0x00, 0x00, 0x34, 0x03, 0x00, 0x00,
  0x38, 0x03, 0x00, 0x00, 0x3c, 0x03, 0x00, 0x00, 0x04, 0x00, 0x00, 0x00,
  0x6d, 0x61, 0x69, 0x6e, 0x00, 0x00, 0x00, 0x00, 0x0b, 0x00, 0x00, 0x00,
  0xd0, 0x02, 0x00, 0x00, 0x6c, 0x02, 0x00, 0x00, 0x04, 0x02, 0x00, 0x00,
  0xc4, 0x01, 0x00, 0x00, 0x80, 0x01, 0x00, 0x00, 0x28, 0x01, 0x00, 0x00,
  0xe8, 0x00, 0x00, 0x00, 0xa4, 0x00, 0x00, 0x00, 0x70, 0x00, 0x00, 0x00,
  0x48, 0x00, 0x00, 0x00, 0x04, 0x00, 0x00, 0x00, 0xaa, 0xfe, 0xff, 0xff,
  0x14, 0x00, 0x00, 0x00, 0x00, 0x00, 0x00, 0x08, 0x10, 0x00, 0x00, 0x00,
  0x14, 0x00, 0x00, 0x00, 0x05, 0x00, 0x00, 0x00, 0x48, 0xd8, 0xff, 0xff,
  0x01, 0x00, 0x00, 0x00, 0x19, 0x00, 0x00, 0x00, 0x03, 0x00, 0x00, 0x00,
  0x18, 0x00, 0x00, 0x00, 0x04, 0x00, 0x00, 0x00, 0x03, 0x00, 0x00, 0x00,
  0x00, 0x00, 0x0a, 0x00, 0x10, 0x00, 0x0c, 0x00, 0x08, 0x00, 0x04, 0x00,
  0x0a, 0x00, 0x00, 0x00, 0x0c, 0x00, 0x00, 0x00, 0x10, 0x00, 0x00, 0x00,
  0x04, 0x00, 0x00, 0x00, 0x01, 0x00, 0x00, 0x00, 0x18, 0x00, 0x00, 0x00,
  0x02, 0x00, 0x00, 0x00, 0x17, 0x00, 0x00, 0x00, 0x02, 0x00, 0x00, 0x00,
  0x0e, 0xff, 0xff, 0xff, 0x14, 0x00, 0x00, 0x00, 0x00, 0x00, 0x00, 0x1b,
  0x10, 0x00, 0x00, 0x00, 0x14, 0x00, 0x00, 0x00, 0x03, 0x00, 0x00, 0x00,
  0xac, 0xd8, 0xff, 0xff, 0x01, 0x00, 0x00, 0x00, 0x17, 0x00, 0x00, 0x00,
  0x02, 0x00, 0x00, 0x00, 0x16, 0x00, 0x00, 0x00, 0x01, 0x00, 0x00, 0x00,
  0x3e, 0xff, 0xff, 0xff, 0x14, 0x00, 0x00, 0x00, 0x00, 0x00, 0x00, 0x05,
  0x24, 0x00, 0x00, 0x00, 0x28, 0x00, 0x00, 0x00, 0x01, 0x00, 0x00, 0x00,
  0x4e, 0xfe, 0xff, 0xff, 0x02, 0x00, 0x00, 0x00, 0x02, 0x00, 0x00, 0x00,
  0x02, 0x00, 0x00, 0x00, 0x02, 0x00, 0x00, 0x00, 0x00, 0x00, 0x00, 0x01,
  0x01, 0x00, 0x00, 0x00, 0x16, 0x00, 0x00, 0x00, 0x01, 0x00, 0x00, 0x00,
  0x15, 0x00, 0x00, 0x00, 0x3e, 0xfe, 0xff, 0xff, 0x10, 0x00, 0x00, 0x00,
  0x00, 0x00, 0x00, 0x01, 0x18, 0x00, 0x00, 0x00, 0x1c, 0x00, 0x00, 0x00,
  0x30, 0xfe, 0xff, 0xff, 0x00, 0x00, 0x00, 0x01, 0x01, 0x00, 0x00, 0x00,
  0x01, 0x00, 0x00, 0x00, 0x01, 0x00, 0x00, 0x00, 0x15, 0x00, 0x00, 0x00,
  0x03, 0x00, 0x00, 0x00, 0x14, 0x00, 0x00, 0x00, 0x06, 0x00, 0x00, 0x00,
  0x05, 0x00, 0x00, 0x00, 0xba, 0xff, 0xff, 0xff, 0x14, 0x00, 0x00, 0x00,
  0x00, 0x00, 0x00, 0x02, 0x20, 0x00, 0x00, 0x00, 0x24, 0x00, 0x00, 0x00,
  0x02, 0x00, 0x00, 0x00, 0x2e, 0xff, 0xff, 0xff, 0x00, 0x00, 0x00, 0x01,
  0x01, 0x00, 0x00, 0x00, 0x01, 0x00, 0x00, 0x00, 0x01, 0x00, 0x00, 0x00,
  0x01, 0x00, 0x00, 0x00, 0x14, 0x00, 0x00, 0x00, 0x03, 0x00, 0x00, 0x00,
  0x13, 0x00, 0x00, 0x00, 0x08, 0x00, 0x00, 0x00, 0x07, 0x00, 0x00, 0x00,
  0x00, 0x00, 0x0e, 0x00, 0x18, 0x00, 0x14, 0x00, 0x10, 0x00, 0x0c, 0x00,
  0x0b, 0x00, 0x04, 0x00, 0x0e, 0x00, 0x00, 0x00, 0x14, 0x00, 0x00, 0x00,
  0x00, 0x00, 0x00, 0x05, 0x24, 0x00, 0x00, 0x00, 0x28, 0x00, 0x00, 0x00,
  0x01, 0x00, 0x00, 0x00, 0x1e, 0xff, 0xff, 0xff, 0x02, 0x00, 0x00, 0x00,
  0x02, 0x00, 0x00, 0x00, 0x02, 0x00, 0x00, 0x00, 0x02, 0x00, 0x00, 0x00,
  0x00, 0x00, 0x00, 0x01, 0x01, 0x00, 0x00, 0x00, 0x13, 0x00, 0x00, 0x00,
  0x01, 0x00, 0x00, 0x00, 0x12, 0x00, 0x00, 0x00, 0x0e, 0xff, 0xff, 0xff,
  0x10, 0x00, 0x00, 0x00, 0x00, 0x00, 0x00, 0x01, 0x18, 0x00, 0x00, 0x00,
  0x1c, 0x00, 0x00, 0x00, 0x00, 0xff, 0xff, 0xff, 0x00, 0x00, 0x00, 0x01,
  0x01, 0x00, 0x00, 0x00, 0x01, 0x00, 0x00, 0x00, 0x01, 0x00, 0x00, 0x00,
  0x12, 0x00, 0x00, 0x00, 0x03, 0x00, 0x00, 0x00, 0x11, 0x00, 0x00, 0x00,
  0x0a, 0x00, 0x00, 0x00, 0x09, 0x00, 0x00, 0x00, 0xaa, 0xff, 0xff, 0xff,
  0x24, 0x00, 0x00, 0x00, 0x00, 0x00, 0x00, 0x02, 0x30, 0x00, 0x00, 0x00,
  0x34, 0x00, 0x00, 0x00, 0x02, 0x00, 0x00, 0x00, 0x00, 0x00, 0x0e, 0x00,
  0x14, 0x00, 0x00, 0x00, 0x10, 0x00, 0x0c, 0x00, 0x08, 0x00, 0x07, 0x00,
  0x0e, 0x00, 0x00, 0x00, 0x00, 0x00, 0x00, 0x01, 0x01, 0x00, 0x00, 0x00,
  0x01, 0x00, 0x00, 0x00, 0x01, 0x00, 0x00, 0x00, 0x01, 0x00, 0x00, 0x00,
  0x11, 0x00, 0x00, 0x00, 0x03, 0x00, 0x00, 0x00, 0x10, 0x00, 0x00, 0x00,
  0x0c, 0x00, 0x00, 0x00, 0x0b, 0x00, 0x00, 0x00, 0x00, 0x00, 0x0e, 0x00,
  0x1a, 0x00, 0x14, 0x00, 0x10, 0x00, 0x0c, 0x00, 0x0b, 0x00, 0x04, 0x00,
  0x0e, 0x00, 0x00, 0x00, 0x24, 0x00, 0x00, 0x00, 0x00, 0x00, 0x00, 0x05,
  0x34, 0x00, 0x00, 0x00, 0x38, 0x00, 0x00, 0x00, 0x01, 0x00, 0x00, 0x00,
  0x00, 0x00, 0x0e, 0x00, 0x18, 0x00, 0x17, 0x00, 0x10, 0x00, 0x0c, 0x00,
  0x08, 0x00, 0x04, 0x00, 0x0e, 0x00, 0x00, 0x00, 0x02, 0x00, 0x00, 0x00,
  0x02, 0x00, 0x00, 0x00, 0x02, 0x00, 0x00, 0x00, 0x02, 0x00, 0x00, 0x00,
  0x00, 0x00, 0x00, 0x01, 0x01, 0x00, 0x00, 0x00, 0x10, 0x00, 0x00, 0x00,
  0x01, 0x00, 0x00, 0x00, 0x0f, 0x00, 0x00, 0x00, 0x00, 0x00, 0x0e, 0x00,
  0x14, 0x00, 0x00, 0x00, 0x10, 0x00, 0x0c, 0x00, 0x0b, 0x00, 0x04, 0x00,
  0x0e, 0x00, 0x00, 0x00, 0x1c, 0x00, 0x00, 0x00, 0x00, 0x00, 0x00, 0x01,
  0x24, 0x00, 0x00, 0x00, 0x28, 0x00, 0x00, 0x00, 0x0c, 0x00, 0x10, 0x00,
  0x00, 0x00, 0x0c, 0x00, 0x08, 0x00, 0x07, 0x00, 0x0c, 0x00, 0x00, 0x00,
  0x00, 0x00, 0x00, 0x01, 0x01, 0x00, 0x00, 0x00, 0x01, 0x00, 0x00, 0x00,
  0x01, 0x00, 0x00, 0x00, 0x0f, 0x00, 0x00, 0x00, 0x03, 0x00, 0x00, 0x00,
  0x00, 0x00, 0x00, 0x00, 0x0e, 0x00, 0x00, 0x00, 0x0d, 0x00, 0x00, 0x00,
  0x01, 0x00, 0x00, 0x00, 0x19, 0x00, 0x00, 0x00, 0x01, 0x00, 0x00, 0x00,
  0x00, 0x00, 0x00, 0x00, 0x1a, 0x00, 0x00, 0x00, 0x0c, 0x25, 0x00, 0x00,
  0xb0, 0x24, 0x00, 0x00, 0x58, 0x24, 0x00, 0x00, 0xc4, 0x23, 0x00, 0x00,
  0x30, 0x23, 0x00, 0x00, 0xdc, 0x1f, 0x00, 0x00, 0x78, 0x1c, 0x00, 0x00,
  0x24, 0x19, 0x00, 0x00, 0xa8, 0x15, 0x00, 0x00, 0x3c, 0x12, 0x00, 0x00,
  0xd8, 0x0e, 0x00, 0x00, 0x04, 0x0d, 0x00, 0x00, 0x1c, 0x0b, 0x00, 0x00,
  0x44, 0x09, 0x00, 0x00, 0x60, 0x07, 0x00, 0x00, 0x94, 0x06, 0x00, 0x00,
  0x00, 0x06, 0x00, 0x00, 0x24, 0x05, 0x00, 0x00, 0x50, 0x04, 0x00, 0x00,
  0xbc, 0x03, 0x00, 0x00, 0xe0, 0x02, 0x00, 0x00, 0x0c, 0x02, 0x00, 0x00,
  0x78, 0x01, 0x00, 0x00, 0xf4, 0x00, 0x00, 0x00, 0x78, 0x00, 0x00, 0x00,
  0x04, 0x00, 0x00, 0x00, 0x72, 0xdb, 0xff, 0xff, 0x00, 0x00, 0x00, 0x01,
  0x18, 0x00, 0x00, 0x00, 0x20, 0x00, 0x00, 0x00, 0x3c, 0x00, 0x00, 0x00,
  0x1a, 0x00, 0x00, 0x00, 0x00, 0x00, 0x00, 0x09, 0x48, 0x00, 0x00, 0x00,
  0x02, 0x00, 0x00, 0x00, 0xff, 0xff, 0xff, 0xff, 0x05, 0x00, 0x00, 0x00,
  0x54, 0xdb, 0xff, 0xff, 0x08, 0x00, 0x00, 0x00, 0x10, 0x00, 0x00, 0x00,
  0x01, 0x00, 0x00, 0x00, 0x2f, 0x00, 0x00, 0x00, 0x00, 0x00, 0x00, 0x00,
  0x01, 0x00, 0x00, 0x00, 0xb6, 0x79, 0xe7, 0x3d, 0x11, 0x00, 0x00, 0x00,
  0x50, 0x61, 0x72, 0x74, 0x69, 0x74, 0x69, 0x6f, 0x6e, 0x65, 0x64, 0x43,
  0x61, 0x6c, 0x6c, 0x3a, 0x30, 0x00, 0x00, 0x00, 0x02, 0x00, 0x00, 0x00,
  0x01, 0x00, 0x00, 0x00, 0x05, 0x00, 0x00, 0x00, 0xe2, 0xdb, 0xff, 0xff,
  0x00, 0x00, 0x00, 0x01, 0x18, 0x00, 0x00, 0x00, 0x20, 0x00, 0x00, 0x00,
  0x40, 0x00, 0x00, 0x00, 0x19, 0x00, 0x00, 0x00, 0x00, 0x00, 0x00, 0x09,
  0x50, 0x00, 0x00, 0x00, 0x02, 0x00, 0x00, 0x00, 0xff, 0xff, 0xff, 0xff,
  0x40, 0x00, 0x00, 0x00, 0xc4, 0xdb, 0xff, 0xff, 0x08, 0x00, 0x00, 0x00,
  0x14, 0x00, 0x00, 0x00, 0x01, 0x00, 0x00, 0x00, 0x80, 0xff, 0xff, 0xff,
  0xff, 0xff, 0xff, 0xff, 0x00, 0x00, 0x00, 0x00, 0x01, 0x00, 0x00, 0x00,
  0xd8, 0xba, 0x89, 0x3d, 0x15, 0x00, 0x00, 0x00, 0x6d, 0x6f, 0x64, 0x65,
  0x6c, 0x2f, 0x66, 0x6c, 0x61, 0x74, 0x74, 0x65, 0x6e, 0x2f, 0x52, 0x65,
  0x73, 0x68, 0x61, 0x70, 0x65, 0x00, 0x00, 0x00, 0x02, 0x00, 0x00, 0x00,
  0x01, 0x00, 0x00, 0x00, 0x40, 0x00, 0x00, 0x00, 0x5a, 0xdc, 0xff, 0xff,
  0x00, 0x00, 0x00, 0x01, 0x18, 0x00, 0x00, 0x00, 0x20, 0x00, 0x00, 0x00,
  0x40, 0x00, 0x00, 0x00, 0x18, 0x00, 0x00, 0x00, 0x00, 0x00, 0x00, 0x09,
  0x58, 0x00, 0x00, 0x00, 0x02, 0x00, 0x00, 0x00, 0xff, 0xff, 0xff, 0xff,
  0x40, 0x00, 0x00, 0x00, 0x3c, 0xdc, 0xff, 0xff, 0x08, 0x00, 0x00, 0x00,
  0x14, 0x00, 0x00, 0x00, 0x01, 0x00, 0x00, 0x00, 0x80, 0xff, 0xff, 0xff,
  0xff, 0xff, 0xff, 0xff, 0x00, 0x00, 0x00, 0x00, 0x01, 0x00, 0x00, 0x00,
  0xd8, 0xba, 0x89, 0x3d, 0x1e, 0x00, 0x00, 0x00, 0x6d, 0x6f, 0x64, 0x65,
  0x6c, 0x2f, 0x74, 0x66, 0x2e, 0x6d, 0x61, 0x74, 0x68, 0x2e, 0x72, 0x65,
  0x64, 0x75, 0x63, 0x65, 0x5f, 0x6d, 0x65, 0x61, 0x6e, 0x2f, 0x4d, 0x65,
  0x61, 0x6e, 0x00, 0x00, 0x02, 0x00, 0x00, 0x00, 0x01, 0x00, 0x00, 0x00,
  0x40, 0x00, 0x00, 0x00, 0xda, 0xdc, 0xff, 0xff, 0x00, 0x00, 0x00, 0x01,
  0x18, 0x00, 0x00, 0x00, 0x28, 0x00, 0x00, 0x00, 0x44, 0x00, 0x00, 0x00,
  0x17, 0x00, 0x00, 0x00, 0x00, 0x00, 0x00, 0x09, 0x60, 0x00, 0x00, 0x00,
  0x04, 0x00, 0x00, 0x00, 0xff, 0xff, 0xff, 0xff, 0x08, 0x00, 0x00, 0x00,
  0x04, 0x00, 0x00, 0x00, 0x40, 0x00, 0x00, 0x00, 0xc4, 0xdc, 0xff, 0xff,
  0x08, 0x00, 0x00, 0x00, 0x10, 0x00, 0x00, 0x00, 0x01, 0x00, 0x00, 0x00,
  0x80, 0xff, 0xff, 0xff, 0xff, 0xff, 0xff, 0xff, 0x01, 0x00, 0x00, 0x00,
  0x39, 0xf4, 0x32, 0x3f, 0x22, 0x00, 0x00, 0x00, 0x6d, 0x6f, 0x64, 0x65,
  0x6c, 0x2f, 0x74, 0x66, 0x2e, 0x6e, 0x6e, 0x2e, 0x6d, 0x61, 0x78, 0x5f,
  0x70, 0x6f, 0x6f, 0x6c, 0x32, 0x64, 0x5f, 0x32, 0x2f, 0x4d, 0x61, 0x78,
  0x50, 0x6f, 0x6f, 0x6c, 0x32, 0x64, 0x00, 0x00, 0x04, 0x00, 0x00, 0x00,
  0x01, 0x00, 0x00, 0x00, 0x08, 0x00, 0x00, 0x00, 0x04, 0x00, 0x00, 0x00,
  0x40, 0x00, 0x00, 0x00, 0x6a, 0xdd, 0xff, 0xff, 0x00, 0x00, 0x00, 0x01,
  0x18, 0x00, 0x00, 0x00, 0x28, 0x00, 0x00, 0x00, 0x48, 0x00, 0x00, 0x00,
  0x16, 0x00, 0x00, 0x00, 0x00, 0x00, 0x00, 0x09, 0xa0, 0x00, 0x00, 0x00,
  0x04, 0x00, 0x00, 0x00, 0xff, 0xff, 0xff, 0xff, 0x10, 0x00, 0x00, 0x00,
  0x08, 0x00, 0x00, 0x00, 0x40, 0x00, 0x00, 0x00, 0x54, 0xdd, 0xff, 0xff,
  0x08, 0x00, 0x00, 0x00, 0x14, 0x00, 0x00, 0x00, 0x01, 0x00, 0x00, 0x00,
  0x80, 0xff, 0xff, 0xff, 0xff, 0xff, 0xff, 0xff, 0x00, 0x00, 0x00, 0x00,
  0x01, 0x00, 0x00, 0x00, 0x39, 0xf4, 0x32, 0x3f, 0x5d, 0x00, 0x00, 0x00,
  0x6d, 0x6f, 0x64, 0x65, 0x6c, 0x2f, 0x74, 0x66, 0x2e, 0x6e, 0x6e, 0x2e,
  0x72, 0x65, 0x6c, 0x75, 0x5f, 0x34, 0x2f, 0x52, 0x65, 0x6c, 0x75, 0x3b,
  0x6d, 0x6f, 0x64, 0x65, 0x6c, 0x2f, 0x74, 0x66, 0x2e, 0x6d, 0x61, 0x74,
  0x68, 0x2e, 0x61, 0x64, 0x64, 0x5f, 0x34, 0x2f, 0x41, 0x64, 0x64, 0x3b,
  0x6d, 0x6f, 0x64, 0x65, 0x6c, 0x2f, 0x74, 0x66, 0x2e, 0x6e, 0x6e, 0x2e,
  0x63, 0x6f, 0x6e, 0x76, 0x6f, 0x6c, 0x75, 0x74, 0x69, 0x6f, 0x6e, 0x5f,
  0x32, 0x2f, 0x63, 0x6f, 0x6e, 0x76, 0x6f, 0x6c, 0x75, 0x74, 0x69, 0x6f,
  0x6e, 0x3b, 0x43, 0x6f, 0x6e, 0x73, 0x74, 0x5f, 0x33, 0x00, 0x00, 0x00,
  0x04, 0x00, 0x00, 0x00, 0x01, 0x00, 0x00, 0x00, 0x10, 0x00, 0x00, 0x00,
  0x08, 0x00, 0x00, 0x00, 0x40, 0x00, 0x00, 0x00, 0x3a, 0xde, 0xff, 0xff,
  0x00, 0x00, 0x00, 0x01, 0x18, 0x00, 0x00, 0x00, 0x28, 0x00, 0x00, 0x00,
  0x44, 0x00, 0x00, 0x00, 0x15, 0x00, 0x00, 0x00, 0x00, 0x00, 0x00, 0x09,
  0xa8, 0x00, 0x00, 0x00, 0x04, 0x00, 0x00, 0x00, 0xff, 0xff, 0xff, 0xff,
  0x10, 0x00, 0x00, 0x00, 0x08, 0x00, 0x00, 0x00, 0x40, 0x00, 0x00, 0x00,
  0x24, 0xde, 0xff, 0xff, 0x08, 0x00, 0x00, 0x00, 0x10, 0x00, 0x00, 0x00,
  0x01, 0x00, 0x00, 0x00, 0x80, 0xff, 0xff, 0xff, 0xff, 0xff, 0xff, 0xff,
  0x01, 0x00, 0x00, 0x00, 0xda, 0x42, 0x4d, 0x3f, 0x6a, 0x00, 0x00, 0x00,
  0x6d, 0x6f, 0x64, 0x65, 0x6c, 0x2f, 0x74, 0x66, 0x2e, 0x6e, 0x6e, 0x2e,
  0x72, 0x65, 0x6c, 0x75, 0x5f, 0x33, 0x2f, 0x52, 0x65, 0x6c, 0x75, 0x3b,
  0x6d, 0x6f, 0x64, 0x65, 0x6c, 0x2f, 0x74, 0x66, 0x2e, 0x6d, 0x61, 0x74,
  0x68, 0x2e, 0x61, 0x64, 0x64, 0x5f, 0x33, 0x2f, 0x41, 0x64, 0x64, 0x3b,
  0x6d, 0x6f, 0x64, 0x65, 0x6c, 0x2f, 0x74, 0x66, 0x2e, 0x63, 0x6f, 0x6d,
  0x70, 0x61, 0x74, 0x2e, 0x76, 0x31, 0x2e, 0x6e, 0x6e, 0x2e, 0x64, 0x65,
  0x70, 0x74, 0x68, 0x77, 0x69, 0x73, 0x65, 0x5f, 0x63, 0x6f, 0x6e, 0x76,
  0x32, 0x64, 0x5f, 0x31, 0x2f, 0x64, 0x65, 0x70, 0x74, 0x68, 0x77, 0x69,
  0x73, 0x65, 0x3b, 0x43, 0x6f, 0x6e, 0x73, 0x74, 0x5f, 0x35, 0x00, 0x00,
  0x04, 0x00, 0x00, 0x00, 0x01, 0x00, 0x00, 0x00, 0x10, 0x00, 0x00, 0x00,
  0x08, 0x00, 0x00, 0x00, 0x40, 0x00, 0x00, 0x00, 0x12, 0xdf, 0xff, 0xff,
  0x00, 0x00, 0x00, 0x01, 0x18, 0x00, 0x00, 0x00, 0x28, 0x00, 0x00, 0x00,
  0x44, 0x00, 0x00, 0x00, 0x14, 0x00, 0x00, 0x00, 0x00, 0x00, 0x00, 0x09,
  0x60, 0x00, 0x00, 0x00, 0x04, 0x00, 0x00, 0x00, 0xff, 0xff, 0xff, 0xff,
  0x10, 0x00, 0x00, 0x00, 0x08, 0x00, 0x00, 0x00, 0x40, 0x00, 0x00, 0x00,
  0xfc, 0xde, 0xff, 0xff, 0x08, 0x00, 0x00, 0x00, 0x10, 0x00, 0x00, 0x00,
  0x01, 0x00, 0x00, 0x00, 0x80, 0xff, 0xff, 0xff, 0xff, 0xff, 0xff, 0xff,
  0x01, 0x00, 0x00, 0x00, 0xd9, 0xc6, 0x8d, 0x3f, 0x22, 0x00, 0x00, 0x00,
  0x6d, 0x6f, 0x64, 0x65, 0x6c, 0x2f, 0x74, 0x66, 0x2e, 0x6e, 0x6e, 0x2e,
  0x6d, 0x61, 0x78, 0x5f, 0x70, 0x6f, 0x6f, 0x6c, 0x32, 0x64, 0x5f, 0x31,
  0x2f, 0x4d, 0x61, 0x78, 0x50, 0x6f, 0x6f, 0x6c, 0x32, 0x64, 0x00, 0x00,
  0x04, 0x00, 0x00, 0x00, 0x01, 0x00, 0x00, 0x00, 0x10, 0x00, 0x00, 0x00,
  0x08, 0x00, 0x00, 0x00, 0x40, 0x00, 0x00, 0x00, 0xa2, 0xdf, 0xff, 0xff,
  0x00, 0x00, 0x00, 0x01, 0x18, 0x00, 0x00, 0x00, 0x28, 0x00, 0x00, 0x00,
  0x48, 0x00, 0x00, 0x00, 0x13, 0x00, 0x00, 0x00, 0x00, 0x00, 0x00, 0x09,
  0xa0, 0x00, 0x00, 0x00, 0x04, 0x00, 0x00, 0x00, 0xff, 0xff, 0xff, 0xff,
  0x20, 0x00, 0x00, 0x00, 0x10, 0x00, 0x00, 0x00, 0x40, 0x00, 0x00, 0x00,
  0x8c, 0xdf, 0xff, 0xff, 0x08, 0x00, 0x00, 0x00, 0x14, 0x00, 0x00, 0x00,
  0x01, 0x00, 0x00, 0x00, 0x80, 0xff, 0xff, 0xff, 0xff, 0xff, 0xff, 0xff,
  0x00, 0x00, 0x00, 0x00, 0x01, 0x00, 0x00, 0x00, 0xd9, 0xc6, 0x8d, 0x3f,
  0x5d, 0x00, 0x00, 0x00, 0x6d, 0x6f, 0x64, 0x65, 0x6c, 0x2f, 0x74, 0x66,
  0x2e, 0x6e, 0x6e, 0x2e, 0x72, 0x65, 0x6c, 0x75, 0x5f, 0x32, 0x2f, 0x52,
  0x65, 0x6c, 0x75, 0x3b, 0x6d, 0x6f, 0x64, 0x65, 0x6c, 0x2f, 0x74, 0x66,
  0x2e, 0x6d, 0x61, 0x74, 0x68, 0x2e, 0x61, 0x64, 0x64, 0x5f, 0x32, 0x2f,
  0x41, 0x64, 0x64, 0x3b, 0x6d, 0x6f, 0x64, 0x65, 0x6c, 0x2f, 0x74, 0x66,
  0x2e, 0x6e, 0x6e, 0x2e, 0x63, 0x6f, 0x6e, 0x76, 0x6f, 0x6c, 0x75, 0x74,
  0x69, 0x6f, 0x6e, 0x5f, 0x31, 0x2f, 0x63, 0x6f, 0x6e, 0x76, 0x6f, 0x6c,
  0x75, 0x74, 0x69, 0x6f, 0x6e, 0x3b, 0x43, 0x6f, 0x6e, 0x73, 0x74, 0x5f,
  0x37, 0x00, 0x00, 0x00, 0x04, 0x00, 0x00, 0x00, 0x01, 0x00, 0x00, 0x00,
  0x20, 0x00, 0x00, 0x00, 0x10, 0x00, 0x00, 0x00, 0x40, 0x00, 0x00, 0x00,
  0x72, 0xe0, 0xff, 0xff, 0x00, 0x00, 0x00, 0x01, 0x18, 0x00, 0x00, 0x00,
  0x28, 0x00, 0x00, 0x00, 0x44, 0x00, 0x00, 0x00, 0x12, 0x00, 0x00, 0x00,
  0x00, 0x00, 0x00, 0x09, 0xa8, 0x00, 0x00, 0x00, 0x04, 0x00, 0x00, 0x00,
  0xff, 0xff, 0xff, 0xff, 0x20, 0x00, 0x00, 0x00, 0x10, 0x00, 0x00, 0x00,
  0x20, 0x00, 0x00, 0x00, 0x5c, 0xe0, 0xff, 0xff, 0x08, 0x00, 0x00, 0x00,
  0x10, 0x00, 0x00, 0x00, 0x01, 0x00, 0x00, 0x00, 0x80, 0xff, 0xff, 0xff,
  0xff, 0xff, 0xff, 0xff, 0x01, 0x00, 0x00, 0x00, 0x1d, 0x59, 0xfc, 0x3e,
  0x68, 0x00, 0x00, 0x00, 0x6d, 0x6f, 0x64, 0x65, 0x6c, 0x2f, 0x74, 0x66,
  0x2e, 0x6e, 0x6e, 0x2e, 0x72, 0x65, 0x6c, 0x75, 0x5f, 0x31, 0x2f, 0x52,
  0x65, 0x6c, 0x75, 0x3b, 0x6d, 0x6f, 0x64, 0x65, 0x6c, 0x2f, 0x74, 0x66,
  0x2e, 0x6d, 0x61, 0x74, 0x68, 0x2e, 0x61, 0x64, 0x64, 0x5f, 0x31, 0x2f,
  0x41, 0x64, 0x64, 0x3b, 0x6d, 0x6f, 0x64, 0x65, 0x6c, 0x2f, 0x74, 0x66,
  0x2e, 0x63, 0x6f, 0x6d, 0x70, 0x61, 0x74, 0x2e, 0x76, 0x31, 0x2e, 0x6e,
  0x6e, 0x2e, 0x64, 0x65, 0x70, 0x74, 0x68, 0x77, 0x69, 0x73, 0x65, 0x5f,
  0x63, 0x6f, 0x6e, 0x76, 0x32, 0x64, 0x2f, 0x64, 0x65, 0x70, 0x74, 0x68,
  0x77, 0x69, 0x73, 0x65, 0x3b, 0x43, 0x6f, 0x6e, 0x73, 0x74, 0x5f, 0x39,
  0x00, 0x00, 0x00, 0x00, 0x04, 0x00, 0x00, 0x00, 0x01, 0x00, 0x00, 0x00,
  0x20, 0x00, 0x00, 0x00, 0x10, 0x00, 0x00, 0x00, 0x20, 0x00, 0x00, 0x00,
  0x4a, 0xe1, 0xff, 0xff, 0x00, 0x00, 0x00, 0x01, 0x18, 0x00, 0x00, 0x00,
  0x28, 0x00, 0x00, 0x00, 0x44, 0x00, 0x00, 0x00, 0x11, 0x00, 0x00, 0x00,
  0x00, 0x00, 0x00, 0x09, 0x60, 0x00, 0x00, 0x00, 0x04, 0x00, 0x00, 0x00,
  0xff, 0xff, 0xff, 0xff, 0x20, 0x00, 0x00, 0x00, 0x10, 0x00, 0x00, 0x00,
  0x20, 0x00, 0x00, 0x00, 0x34, 0xe1, 0xff, 0xff, 0x08, 0x00, 0x00, 0x00,
  0x10, 0x00, 0x00, 0x00, 0x01, 0x00, 0x00, 0x00, 0x80, 0xff, 0xff, 0xff,
  0xff, 0xff, 0xff, 0xff, 0x01, 0x00, 0x00, 0x00, 0x9d, 0xbc, 0xc8, 0x3e,
  0x20, 0x00, 0x00, 0x00, 0x6d, 0x6f, 0x64, 0x65, 0x6c, 0x2f, 0x74, 0x66,
  0x2e, 0x6e, 0x6e, 0x2e, 0x6d, 0x61, 0x78, 0x5f, 0x70, 0x6f, 0x6f, 0x6c,
  0x32, 0x64, 0x2f, 0x4d, 0x61, 0x78, 0x50, 0x6f, 0x6f, 0x6c, 0x32, 0x64,
  0x00, 0x00, 0x00, 0x00, 0x04, 0x00, 0x00, 0x00, 0x01, 0x00, 0x00, 0x00,
  0x20, 0x00, 0x00, 0x00, 0x10, 0x00, 0x00, 0x00, 0x20, 0x00, 0x00, 0x00,
  0xda, 0xe1, 0xff, 0xff, 0x00, 0x00, 0x00, 0x01, 0x18, 0x00, 0x00, 0x00,
  0x28, 0x00, 0x00, 0x00, 0x44, 0x00, 0x00, 0x00, 0x10, 0x00, 0x00, 0x00,
  0x00, 0x00, 0x00, 0x09, 0x98, 0x00, 0x00, 0x00, 0x04, 0x00, 0x00, 0x00,
  0xff, 0xff, 0xff, 0xff, 0x40, 0x00, 0x00, 0x00, 0x20, 0x00, 0x00, 0x00,
  0x20, 0x00, 0x00, 0x00, 0xc4, 0xe1, 0xff, 0xff, 0x08, 0x00, 0x00, 0x00,
  0x10, 0x00, 0x00, 0x00, 0x01, 0x00, 0x00, 0x00, 0x80, 0xff, 0xff, 0xff,
  0xff, 0xff, 0xff, 0xff, 0x01, 0x00, 0x00, 0x00, 0x9d, 0xbc, 0xc8, 0x3e,
  0x59, 0x00, 0x00, 0x00, 0x6d, 0x6f, 0x64, 0x65, 0x6c, 0x2f, 0x74, 0x66,
  0x2e, 0x6e, 0x6e, 0x2e, 0x72, 0x65, 0x6c, 0x75, 0x2f, 0x52, 0x65, 0x6c,
  0x75, 0x3b, 0x6d, 0x6f, 0x64, 0x65, 0x6c, 0x2f, 0x74, 0x66, 0x2e, 0x6d,
  0x61, 0x74, 0x68, 0x2e, 0x61, 0x64, 0x64, 0x2f, 0x41, 0x64, 0x64, 0x3b,
  0x6d, 0x6f, 0x64, 0x65, 0x6c, 0x2f, 0x74, 0x66, 0x2e, 0x6e, 0x6e, 0x2e,
  0x63, 0x6f, 0x6e, 0x76, 0x6f, 0x6c, 0x75, 0x74, 0x69, 0x6f, 0x6e, 0x2f,
  0x63, 0x6f, 0x6e, 0x76, 0x6f, 0x6c, 0x75, 0x74, 0x69, 0x6f, 0x6e, 0x3b,
  0x43, 0x6f, 0x6e, 0x73, 0x74, 0x5f, 0x31, 0x31, 0x31, 0x00, 0x00, 0x00,
  0x04, 0x00, 0x00, 0x00, 0x01, 0x00, 0x00, 0x00, 0x40, 0x00, 0x00, 0x00,
  0x20, 0x00, 0x00, 0x00, 0x20, 0x00, 0x00, 0x00, 0xfa, 0xe2, 0xff, 0xff,
  0x00, 0x00, 0x00, 0x01, 0x14, 0x00, 0x00, 0x00, 0xa8, 0x01, 0x00, 0x00,
  0x0f, 0x00, 0x00, 0x00, 0x00, 0x00, 0x00, 0x09, 0xb4, 0x01, 0x00, 0x00,
  0x74, 0xe2, 0xff, 0xff, 0x08, 0x00, 0x00, 0x00, 0x0c, 0x01, 0x00, 0x00,
  0x20, 0x00, 0x00, 0x00, 0x00, 0x00, 0x00, 0x00, 0x00, 0x00, 0x00, 0x00,
  0x00, 0x00, 0x00, 0x00, 0x00, 0x00, 0x00, 0x00, 0x00, 0x00, 0x00, 0x00,
  0x00, 0x00, 0x00, 0x00, 0x00, 0x00, 0x00, 0x00, 0x00, 0x00, 0x00, 0x00,
  0x00, 0x00, 0x00, 0x00, 0x00, 0x00, 0x00, 0x00, 0x00, 0x00, 0x00, 0x00,
  0x00, 0x00, 0x00, 0x00, 0x00, 0x00, 0x00, 0x00, 0x00, 0x00, 0x00, 0x00,
  0x00, 0x00, 0x00, 0x00, 0x00, 0x00, 0x00, 0x00, 0x00, 0x00, 0x00, 0x00,
  0x00, 0x00, 0x00, 0x00, 0x00, 0x00, 0x00, 0x00, 0x00, 0x00, 0x00, 0x00,
  0x00, 0x00, 0x00, 0x00, 0x00, 0x00, 0x00, 0x00, 0x00, 0x00, 0x00, 0x00,
  0x00, 0x00, 0x00, 0x00, 0x00, 0x00, 0x00, 0x00, 0x00, 0x00, 0x00, 0x00,
  0x00, 0x00, 0x00, 0x00, 0x00, 0x00, 0x00, 0x00, 0x00, 0x00, 0x00, 0x00,
  0x00, 0x00, 0x00, 0x00, 0x00, 0x00, 0x00, 0x00, 0x00, 0x00, 0x00, 0x00,
  0x00, 0x00, 0x00, 0x00, 0x00, 0x00, 0x00, 0x00, 0x00, 0x00, 0x00, 0x00,
  0x00, 0x00, 0x00, 0x00, 0x00, 0x00, 0x00, 0x00, 0x00, 0x00, 0x00, 0x00,
  0x00, 0x00, 0x00, 0x00, 0x00, 0x00, 0x00, 0x00, 0x00, 0x00, 0x00, 0x00,
  0x00, 0x00, 0x00, 0x00, 0x00, 0x00, 0x00, 0x00, 0x00, 0x00, 0x00, 0x00,
  0x00, 0x00, 0x00, 0x00, 0x00, 0x00, 0x00, 0x00, 0x00, 0x00, 0x00, 0x00,
  0x00, 0x00, 0x00, 0x00, 0x00, 0x00, 0x00, 0x00, 0x00, 0x00, 0x00, 0x00,
  0x00, 0x00, 0x00, 0x00, 0x00, 0x00, 0x00, 0x00, 0x00, 0x00, 0x00, 0x00,
  0x00, 0x00, 0x00, 0x00, 0x00, 0x00, 0x00, 0x00, 0x00, 0x00, 0x00, 0x00,
  0x00, 0x00, 0x00, 0x00, 0x00, 0x00, 0x00, 0x00, 0x00, 0x00, 0x00, 0x00,
  0x00, 0x00, 0x00, 0x00, 0x00, 0x00, 0x00, 0x00, 0x00, 0x00, 0x00, 0x00,
  0x00, 0x00, 0x00, 0x00, 0x00, 0x00, 0x00, 0x00, 0x00, 0x00, 0x00, 0x00,
  0x20, 0x00, 0x00, 0x00, 0x05, 0x53, 0x81, 0x37, 0x6a, 0x84, 0x59, 0x37,
  0x96, 0x52, 0x41, 0x37, 0x96, 0xc4, 0x34, 0x37, 0xaa, 0x09, 0x2b, 0x37,
  0xf6, 0x02, 0x18, 0x37, 0x63, 0x66, 0x2e, 0x37, 0xb1, 0xe6, 0x88, 0x37,
  0xb5, 0x05, 0x54, 0x37, 0x18, 0xf3, 0x5c, 0x37, 0x1c, 0x98, 0x04, 0x37,
  0xb7, 0x4d, 0x1d, 0x37, 0x8a, 0x3c, 0x1a, 0x37, 0x70, 0xe8, 0x8f, 0x37,
  0xfb, 0x1c, 0x3f, 0x37, 0xe2, 0x35, 0x53, 0x37, 0x96, 0x00, 0xae, 0x36,
  0xf2, 0xb8, 0x92, 0x37, 0xc4, 0x37, 0x65, 0x37, 0xb1, 0x69, 0xf3, 0x36,
  0x06, 0xf7, 0x59, 0x37, 0x73, 0x3c, 0x96, 0x37, 0x7a, 0xf1, 0x00, 0x37,
  0x56, 0xf3, 0x59, 0x37, 0xce, 0x7d, 0x40, 0x37, 0x8a, 0xbd, 0x46, 0x37,
  0x5d, 0xe3, 0xf7, 0x36, 0xf6, 0x08, 0x46, 0x37, 0xa2, 0x7a, 0x80, 0x37,
  0x39, 0x0b, 0x89, 0x37, 0x36, 0x85, 0x41, 0x37, 0x93, 0x38, 0xa4, 0x37,
  0x13, 0x00, 0x00, 0x00, 0x74, 0x66, 0x6c, 0x2e, 0x70, 0x73, 0x65, 0x75,
  0x64, 0x6f, 0x5f, 0x71, 0x63, 0x6f, 0x6e, 0x73, 0x74, 0x31, 0x31, 0x00,
  0x04, 0x00, 0x00, 0x00, 0x20, 0x00, 0x00, 0x00, 0x03, 0x00, 0x00, 0x00,
  0x03, 0x00, 0x00, 0x00, 0x01, 0x00, 0x00, 0x00, 0xda, 0xe4, 0xff, 0xff,
  0x00, 0x00, 0x00, 0x01, 0x14, 0x00, 0x00, 0x00, 0xa8, 0x01, 0x00, 0x00,
  0x0e, 0x00, 0x00, 0x00, 0x00, 0x00, 0x00, 0x02, 0xb4, 0x01, 0x00, 0x00,
  0x54, 0xe4, 0xff, 0xff, 0x08, 0x00, 0x00, 0x00, 0x0c, 0x01, 0x00, 0x00,
  0x20, 0x00, 0x00, 0x00, 0x00, 0x00, 0x00, 0x00, 0x00, 0x00, 0x00, 0x00,
  0x00, 0x00, 0x00, 0x00, 0x00, 0x00, 0x00, 0x00, 0x00, 0x00, 0x00, 0x00,
  0x00, 0x00, 0x00, 0x00, 0x00, 0x00, 0x00, 0x00, 0x00, 0x00, 0x00, 0x00,
  0x00, 0x00, 0x00, 0x00, 0x00, 0x00, 0x00, 0x00, 0x00, 0x00, 0x00, 0x00,
  0x00, 0x00, 0x00, 0x00, 0x00, 0x00, 0x00, 0x00, 0x00, 0x00, 0x00, 0x00,
  0x00, 0x00, 0x00, 0x00, 0x00, 0x00, 0x00, 0x00, 0x00, 0x00, 0x00, 0x00,
  0x00, 0x00, 0x00, 0x00, 0x00, 0x00, 0x00, 0x00, 0x00, 0x00, 0x00, 0x00,
  0x00, 0x00, 0x00, 0x00, 0x00, 0x00, 0x00, 0x00, 0x00, 0x00, 0x00, 0x00,
  0x00, 0x00, 0x00, 0x00, 0x00, 0x00, 0x00, 0x00, 0x00, 0x00, 0x00, 0x00,
  0x00, 0x00, 0x00, 0x00, 0x00, 0x00, 0x00, 0x00, 0x00, 0x00, 0x00, 0x00,
  0x00, 0x00, 0x00, 0x00, 0x00, 0x00, 0x00, 0x00, 0x00, 0x00, 0x00, 0x00,
  0x00, 0x00, 0x00, 0x00, 0x00, 0x00, 0x00, 0x00, 0x00, 0x00, 0x00, 0x00,
  0x00, 0x00, 0x00, 0x00, 0x00, 0x00, 0x00, 0x00, 0x00, 0x00, 0x00, 0x00,
  0x00, 0x00, 0x00, 0x00, 0x00, 0x00, 0x00, 0x00, 0x00, 0x00, 0x00, 0x00,
  0x00, 0x00, 0x00, 0x00, 0x00, 0x00, 0x00, 0x00, 0x00, 0x00, 0x00, 0x00,
  0x00, 0x00, 0x00, 0x00, 0x00, 0x00, 0x00, 0x00, 0x00, 0x00, 0x00, 0x00,
  0x00, 0x00, 0x00, 0x00, 0x00, 0x00, 0x00, 0x00, 0x00, 0x00, 0x00, 0x00,
  0x00, 0x00, 0x00, 0x00, 0x00, 0x00, 0x00, 0x00, 0x00, 0x00, 0x00, 0x00,
  0x00, 0x00, 0x00, 0x00, 0x00, 0x00, 0x00, 0x00, 0x00, 0x00, 0x00, 0x00,
  0x00, 0x00, 0x00, 0x00, 0x00, 0x00, 0x00, 0x00, 0x00, 0x00, 0x00, 0x00,
  0x00, 0x00, 0x00, 0x00, 0x00, 0x00, 0x00, 0x00, 0x00, 0x00, 0x00, 0x00,
  0x00, 0x00, 0x00, 0x00, 0x00, 0x00, 0x00, 0x00, 0x00, 0x00, 0x00, 0x00,
  0x20, 0x00, 0x00, 0x00, 0x0b, 0x41, 0x3d, 0x3b, 0x7a, 0x28, 0x1f, 0x3b,
  0x6f, 0x74, 0x0d, 0x3b, 0xbd, 0x44, 0x04, 0x3b, 0x3e, 0x4c, 0xfa, 0x3a,
  0x6c, 0x74, 0xde, 0x3a, 0xd5, 0x37, 0xff, 0x3a, 0x92, 0x57, 0x48, 0x3b,
  0x30, 0x23, 0x1b, 0x3b, 0x69, 0xab, 0x21, 0x3b, 0x0b, 0x0a, 0xc2, 0x3a,
  0xfb, 0x32, 0xe6, 0x3a, 0xf3, 0xb5, 0xe1, 0x3a, 0x8d, 0x98, 0x52, 0x3b,
  0x94, 0xd6, 0x0b, 0x3b, 0x1f, 0x8b, 0x1a, 0x3b, 0xdb, 0xa2, 0x7e, 0x3a,
  0xf3, 0xb6, 0x56, 0x3b, 0x30, 0xb8, 0x27, 0x3b, 0x25, 0x1b, 0xb2, 0x3a,
  0x57, 0x7c, 0x1f, 0x3b, 0x4a, 0xdb, 0x5b, 0x3b, 0x4c, 0xb2, 0xbc, 0x3a,
  0xa4, 0x79, 0x1f, 0x3b, 0xbd, 0xd8, 0x0c, 0x3b, 0x45, 0x6b, 0x11, 0x3b,
  0x70, 0x61, 0xb5, 0x3a, 0x24, 0xe7, 0x10, 0x3b, 0x61, 0x04, 0x3c, 0x3b,
  0x08, 0x8d, 0x48, 0x3b, 0x7a, 0x99, 0x0d, 0x3b, 0x78, 0x52, 0x70, 0x3b,
  0x13, 0x00, 0x00, 0x00, 0x74, 0x66, 0x6c, 0x2e, 0x70, 0x73, 0x65, 0x75,
  0x64, 0x6f, 0x5f, 0x71, 0x63, 0x6f, 0x6e, 0x73, 0x74, 0x31, 0x30, 0x00,
  0x01, 0x00, 0x00, 0x00, 0x20, 0x00, 0x00, 0x00, 0xae, 0xe6, 0xff, 0xff,
  0x00, 0x00, 0x00, 0x01, 0x14, 0x00, 0x00, 0x00, 0xac, 0x01, 0x00, 0x00,
  0x0d, 0x00, 0x00, 0x00, 0x00, 0x00, 0x00, 0x09, 0xb8, 0x01, 0x00, 0x00,
  0x82, 0xf5, 0xff, 0xff, 0x03, 0x00, 0x00, 0x00, 0x08, 0x00, 0x00, 0x00,
  0x0c, 0x01, 0x00, 0x00, 0x20, 0x00, 0x00, 0x00, 0x00, 0x00, 0x00, 0x00,
  0x00, 0x00, 0x00, 0x00, 0x00, 0x00, 0x00, 0x00, 0x00, 0x00, 0x00, 0x00,
  0x00, 0x00, 0x00, 0x00, 0x00, 0x00, 0x00, 0x00, 0x00, 0x00, 0x00, 0x00,
  0x00, 0x00, 0x00, 0x00, 0x00, 0x00, 0x00, 0x00, 0x00, 0x00, 0x00, 0x00,
  0x00, 0x00, 0x00, 0x00, 0x00, 0x00, 0x00, 0x00, 0x00, 0x00, 0x00, 0x00,
  0x00, 0x00, 0x00, 0x00, 0x00, 0x00, 0x00, 0x00, 0x00, 0x00, 0x00, 0x00,
  0x00, 0x00, 0x00, 0x00, 0x00, 0x00, 0x00, 0x00, 0x00, 0x00, 0x00, 0x00,
  0x00, 0x00, 0x00, 0x00, 0x00, 0x00, 0x00, 0x00, 0x00, 0x00, 0x00, 0x00,
  0x00, 0x00, 0x00, 0x00, 0x00, 0x00, 0x00, 0x00, 0x00, 0x00, 0x00, 0x00,
  0x00, 0x00, 0x00, 0x00, 0x00, 0x00, 0x00, 0x00, 0x00, 0x00, 0x00, 0x00,
  0x00, 0x00, 0x00, 0x00, 0x00, 0x00, 0x00, 0x00, 0x00, 0x00, 0x00, 0x00,
  0x00, 0x00, 0x00, 0x00, 0x00, 0x00, 0x00, 0x00, 0x00, 0x00, 0x00, 0x00,
  0x00, 0x00, 0x00, 0x00, 0x00, 0x00, 0x00, 0x00, 0x00, 0x00, 0x00, 0x00,
  0x00, 0x00, 0x00, 0x00, 0x00, 0x00, 0x00, 0x00, 0x00, 0x00, 0x00, 0x00,
  0x00, 0x00, 0x00, 0x00, 0x00, 0x00, 0x00, 0x00, 0x00, 0x00, 0x00, 0x00,
  0x00, 0x00, 0x00, 0x00, 0x00, 0x00, 0x00, 0x00, 0x00, 0x00, 0x00, 0x00,
  0x00, 0x00, 0x00, 0x00, 0x00, 0x00, 0x00, 0x00, 0x00, 0x00, 0x00, 0x00,
  0x00, 0x00, 0x00, 0x00, 0x00, 0x00, 0x00, 0x00, 0x00, 0x00, 0x00, 0x00,
  0x00, 0x00, 0x00, 0x00, 0x00, 0x00, 0x00, 0x00, 0x00, 0x00, 0x00, 0x00,
  0x00, 0x00, 0x00, 0x00, 0x00, 0x00, 0x00, 0x00, 0x00, 0x00, 0x00, 0x00,
  0x00, 0x00, 0x00, 0x00, 0x00, 0x00, 0x00, 0x00, 0x00, 0x00, 0x00, 0x00,
  0x00, 0x00, 0x00, 0x00, 0x00, 0x00, 0x00, 0x00, 0x00, 0x00, 0x00, 0x00,
  0x00, 0x00, 0x00, 0x00, 0x20, 0x00, 0x00, 0x00, 0x10, 0x09, 0xa5, 0x3b,
  0x9f, 0x99, 0x72, 0x3b, 0xf4, 0x23, 0xdd, 0x3b, 0x8f, 0xef, 0x1b, 0x3c,
  0xd3, 0xf7, 0x46, 0x3b, 0xc1, 0xdd, 0x78, 0x3b, 0x42, 0x51, 0x85, 0x3b,
  0x7f, 0x44, 0xfc, 0x3b, 0x19, 0x4a, 0xb0, 0x3b, 0x73, 0x19, 0x82, 0x3b,
  0x97, 0x81, 0x81, 0x3b, 0xf4, 0xb8, 0xa6, 0x3b, 0x50, 0x2f, 0x79, 0x3b,
  0x08, 0x8a, 0xbb, 0x3b, 0x26, 0x42, 0x8e, 0x3b, 0x79, 0x34, 0x7e, 0x3b,
  0xb5, 0x10, 0x65, 0x3b, 0x89, 0x96, 0x5e, 0x3b, 0xce, 0x0a, 0x8c, 0x3b,
  0xb2, 0xd2, 0x92, 0x3b, 0x66, 0x53, 0x8e, 0x3b, 0x4c, 0xc1, 0xe4, 0x3b,
  0xf5, 0xdc, 0x66, 0x3b, 0xf1, 0xff, 0x87, 0x3b, 0x26, 0x7a, 0x9f, 0x3b,
  0x6b, 0x03, 0x89, 0x3b, 0xbd, 0x1c, 0xb0, 0x3b, 0xa5, 0xc1, 0x82, 0x3b,
  0x94, 0x2f, 0xa5, 0x3b, 0xf7, 0x8d, 0x53, 0x3b, 0x28, 0x19, 0x92, 0x3b,
  0x8f, 0x0a, 0xa4, 0x3b, 0x12, 0x00, 0x00, 0x00, 0x74, 0x66, 0x6c, 0x2e,
  0x70, 0x73, 0x65, 0x75, 0x64, 0x6f, 0x5f, 0x71, 0x63, 0x6f, 0x6e, 0x73,
  0x74, 0x39, 0x00, 0x00, 0x04, 0x00, 0x00, 0x00, 0x01, 0x00, 0x00, 0x00,
  0x03, 0x00, 0x00, 0x00, 0x03, 0x00, 0x00, 0x00, 0x20, 0x00, 0x00, 0x00,
  0x92, 0xe8, 0xff, 0xff, 0x00, 0x00, 0x00, 0x01, 0x14, 0x00, 0x00, 0x00,
  0xa4, 0x01, 0x00, 0x00, 0x0c, 0x00, 0x00, 0x00, 0x00, 0x00, 0x00, 0x02,
  0xb0, 0x01, 0x00, 0x00, 0x0c, 0xe8, 0xff, 0xff, 0x08, 0x00, 0x00, 0x00,
  0x08, 0x01, 0x00, 0x00, 0x20, 0x00, 0x00, 0x00, 0x00, 0x00, 0x00, 0x00,
  0x00, 0x00, 0x00, 0x00, 0x00, 0x00, 0x00, 0x00, 0x00, 0x00, 0x00, 0x00,
  0x00, 0x00, 0x00, 0x00, 0x00, 0x00, 0x00, 0x00, 0x00, 0x00, 0x00, 0x00,
  0x00, 0x00, 0x00, 0x00, 0x00, 0x00, 0x00, 0x00, 0x00, 0x00, 0x00, 0x00,
  0x00, 0x00, 0x00, 0x00, 0x00, 0x00, 0x00, 0x00, 0x00, 0x00, 0x00, 0x00,
  0x00, 0x00, 0x00, 0x00, 0x00, 0x00, 0x00, 0x00, 0x00, 0x00, 0x00, 0x00,
  0x00, 0x00, 0x00, 0x00, 0x00, 0x00, 0x00, 0x00, 0x00, 0x00, 0x00, 0x00,
  0x00, 0x00, 0x00, 0x00, 0x00, 0x00, 0x00, 0x00, 0x00, 0x00, 0x00, 0x00,
  0x00, 0x00, 0x00, 0x00, 0x00, 0x00, 0x00, 0x00, 0x00, 0x00, 0x00, 0x00,
  0x00, 0x00, 0x00, 0x00, 0x00, 0x00, 0x00, 0x00, 0x00, 0x00, 0x00, 0x00,
  0x00, 0x00, 0x00, 0x00, 0x00, 0x00, 0x00, 0x00, 0x00, 0x00, 0x00, 0x00,
  0x00, 0x00, 0x00, 0x00, 0x00, 0x00, 0x00, 0x00, 0x00, 0x00, 0x00, 0x00,
  0x00, 0x00, 0x00, 0x00, 0x00, 0x00, 0x00, 0x00, 0x00, 0x00, 0x00, 0x00,
  0x00, 0x00, 0x00, 0x00, 0x00, 0x00, 0x00, 0x00, 0x00, 0x00, 0x00, 0x00,
  0x00, 0x00, 0x00, 0x00, 0x00, 0x00, 0x00, 0x00, 0x00, 0x00, 0x00, 0x00,
  0x00, 0x00, 0x00, 0x00, 0x00, 0x00, 0x00, 0x00, 0x00, 0x00, 0x00, 0x00,
  0x00, 0x00, 0x00, 0x00, 0x00, 0x00, 0x00, 0x00, 0x00, 0x00, 0x00, 0x00,
  0x00, 0x00, 0x00, 0x00, 0x00, 0x00, 0x00, 0x00, 0x00, 0x00, 0x00, 0x00,
  0x00, 0x00, 0x00, 0x00, 0x00, 0x00, 0x00, 0x00, 0x00, 0x00, 0x00, 0x00,
  0x00, 0x00, 0x00, 0x00, 0x00, 0x00, 0x00, 0x00, 0x00, 0x00, 0x00, 0x00,
  0x00, 0x00, 0x00, 0x00, 0x00, 0x00, 0x00, 0x00, 0x00, 0x00, 0x00, 0x00,
  0x00, 0x00, 0x00, 0x00, 0x00, 0x00, 0x00, 0x00, 0x00, 0x00, 0x00, 0x00,
  0x20, 0x00, 0x00, 0x00, 0xac, 0x68, 0x01, 0x3b, 0xc2, 0x3a, 0xbe, 0x3a,
  0x05, 0x67, 0x2d, 0x3b, 0x17, 0x8c, 0x74, 0x3b, 0x35, 0x04, 0x9c, 0x3a,
  0x9a, 0x24, 0xc3, 0x3a, 0x6a, 0x13, 0xd1, 0x3a, 0x60, 0xcf, 0x45, 0x3b,
  0xc6, 0x3b, 0x0a, 0x3b, 0x79, 0x07, 0xcc, 0x3a, 0x51, 0x19, 0xcb, 0x3a,
  0x55, 0xbb, 0x02, 0x3b, 0x8e, 0x64, 0xc3, 0x3a, 0x03, 0x0e, 0x13, 0x3b,
  0xfb, 0x18, 0xdf, 0x3a, 0x49, 0x54, 0xc7, 0x3a, 0xd2, 0x9d, 0xb3, 0x3a,
  0x9a, 0x89, 0xae, 0x3a, 0x3e, 0x9f, 0xdb, 0x3a, 0x90, 0x41, 0xe6, 0x3a,
  0x08, 0x34, 0xdf, 0x3a, 0x8e, 0x5f, 0x33, 0x3b, 0xb7, 0x06, 0xb5, 0x3a,
  0x4f, 0x48, 0xd5, 0x3a, 0xda, 0x19, 0xfa, 0x3a, 0x3c, 0xdf, 0xd6, 0x3a,
  0x35, 0x18, 0x0a, 0x3b, 0x3f, 0x0f, 0xcd, 0x3a, 0xe0, 0x86, 0x01, 0x3b,
  0xc7, 0xe2, 0xa5, 0x3a, 0x97, 0x1e, 0xe5, 0x3a, 0x1c, 0xa1, 0x00, 0x3b,
  0x12, 0x00, 0x00, 0x00, 0x74, 0x66, 0x6c, 0x2e, 0x70, 0x73, 0x65, 0x75,
  0x64, 0x6f, 0x5f, 0x71, 0x63, 0x6f, 0x6e, 0x73, 0x74, 0x38, 0x00, 0x00,
  0x01, 0x00, 0x00, 0x00, 0x20, 0x00, 0x00, 0x00, 0x62, 0xea, 0xff, 0xff,
  0x00, 0x00, 0x00, 0x01, 0x14, 0x00, 0x00, 0x00, 0x28, 0x03, 0x00, 0x00,
  0x0b, 0x00, 0x00, 0x00, 0x00, 0x00, 0x00, 0x09, 0x34, 0x03, 0x00, 0x00,
  0xdc, 0xe9, 0xff, 0xff, 0x08, 0x00, 0x00, 0x00, 0x0c, 0x02, 0x00, 0x00,
  0x40, 0x00, 0x00, 0x00, 0x00, 0x00, 0x00, 0x00, 0x00, 0x00, 0x00, 0x00,
  0x00, 0x00, 0x00, 0x00, 0x00, 0x00, 0x00, 0x00, 0x00, 0x00, 0x00, 0x00,
  0x00, 0x00, 0x00, 0x00, 0x00, 0x00, 0x00, 0x00, 0x00, 0x00, 0x00, 0x00,
  0x00, 0x00, 0x00, 0x00, 0x00, 0x00, 0x00, 0x00, 0x00, 0x00, 0x00, 0x00,
  0x00, 0x00, 0x00, 0x00, 0x00, 0x00, 0x00, 0x00, 0x00, 0x00, 0x00, 0x00,
  0x00, 0x00, 0x00, 0x00, 0x00, 0x00, 0x00, 0x00, 0x00, 0x00, 0x00, 0x00,
  0x00, 0x00, 0x00, 0x00, 0x00, 0x00, 0x00, 0x00, 0x00, 0x00, 0x00, 0x00,
  0x00, 0x00, 0x00, 0x00, 0x00, 0x00, 0x00, 0x00, 0x00, 0x00, 0x00, 0x00,
  0x00, 0x00, 0x00, 0x00, 0x00, 0x00, 0x00, 0x00, 0x00, 0x00, 0x00, 0x00,
  0x00, 0x00, 0x00, 0x00, 0x00, 0x00, 0x00, 0x00, 0x00, 0x00, 0x00, 0x00,
  0x00, 0x00, 0x00, 0x00, 0x00, 0x00, 0x00, 0x00, 0x00, 0x00, 0x00, 0x00,
  0x00, 0x00, 0x00, 0x00, 0x00, 0x00, 0x00, 0x00, 0x00, 0x00, 0x00, 0x00,
  0x00, 0x00, 0x00, 0x00, 0x00, 0x00, 0x00, 0x00, 0x00, 0x00, 0x00, 0x00,
  0x00, 0x00, 0x00, 0x00, 0x00, 0x00, 0x00, 0x00, 0x00, 0x00, 0x00, 0x00,
  0x00, 0x00, 0x00, 0x00, 0x00, 0x00, 0x00, 0x00, 0x00, 0x00, 0x00, 0x00,
  0x00, 0x00, 0x00, 0x00, 0x00, 0x00, 0x00, 0x00, 0x00, 0x00, 0x00, 0x00,
  0x00, 0x00, 0x00, 0x00, 0x00, 0x00, 0x00, 0x00, 0x00, 0x00, 0x00, 0x00,
  0x00, 0x00, 0x00, 0x00, 0x00, 0x00, 0x00, 0x00, 0x00, 0x00, 0x00, 0x00,
  0x00, 0x00, 0x00, 0x00, 0x00, 0x00, 0x00, 0x00, 0x00, 0x00, 0x00, 0x00,
  0x00, 0x00, 0x00, 0x00, 0x00, 0x00, 0x00, 0x00, 0x00, 0x00, 0x00, 0x00,
  0x00, 0x00, 0x00, 0x00, 0x00, 0x00, 0x00, 0x00, 0x00, 0x00, 0x00, 0x00,
  0x00, 0x00, 0x00, 0x00, 0x00, 0x00, 0x00, 0x00, 0x00, 0x00, 0x00, 0x00,
  0x00, 0x00, 0x00, 0x00, 0x00, 0x00, 0x00, 0x00, 0x00, 0x00, 0x00, 0x00,
  0x00, 0x00, 0x00, 0x00, 0x00, 0x00, 0x00, 0x00, 0x00, 0x00, 0x00, 0x00,
  0x00, 0x00, 0x00, 0x00, 0x00, 0x00, 0x00, 0x00, 0x00, 0x00, 0x00, 0x00,
  0x00, 0x00, 0x00, 0x00, 0x00, 0x00, 0x00, 0x00, 0x00, 0x00, 0x00, 0x00,
  0x00, 0x00, 0x00, 0x00, 0x00, 0x00, 0x00, 0x00, 0x00, 0x00, 0x00, 0x00,
  0x00, 0x00, 0x00, 0x00, 0x00, 0x00, 0x00, 0x00, 0x00, 0x00, 0x00, 0x00,
  0x00, 0x00, 0x00, 0x00, 0x00, 0x00, 0x00, 0x00, 0x00, 0x00, 0x00, 0x00,
  0x00, 0x00, 0x00, 0x00, 0x00, 0x00, 0x00, 0x00, 0x00, 0x00, 0x00, 0x00,
  0x00, 0x00, 0x00, 0x00, 0x00, 0x00, 0x00, 0x00, 0x00, 0x00, 0x00, 0x00,
  0x00, 0x00, 0x00, 0x00, 0x00, 0x00, 0x00, 0x00, 0x00, 0x00, 0x00, 0x00,
  0x00, 0x00, 0x00, 0x00, 0x00, 0x00, 0x00, 0x00, 0x00, 0x00, 0x00, 0x00,
  0x00, 0x00, 0x00, 0x00, 0x00, 0x00, 0x00, 0x00, 0x00, 0x00, 0x00, 0x00,
  0x00, 0x00, 0x00, 0x00, 0x00, 0x00, 0x00, 0x00, 0x00, 0x00, 0x00, 0x00,
  0x00, 0x00, 0x00, 0x00, 0x00, 0x00, 0x00, 0x00, 0x00, 0x00, 0x00, 0x00,
  0x00, 0x00, 0x00, 0x00, 0x00, 0x00, 0x00, 0x00, 0x00, 0x00, 0x00, 0x00,
  0x00, 0x00, 0x00, 0x00, 0x00, 0x00, 0x00, 0x00, 0x00, 0x00, 0x00, 0x00,
  0x00, 0x00, 0x00, 0x00, 0x00, 0x00, 0x00, 0x00, 0x00, 0x00, 0x00, 0x00,
  0x00, 0x00, 0x00, 0x00, 0x00, 0x00, 0x00, 0x00, 0x00, 0x00, 0x00, 0x00,
  0x00, 0x00, 0x00, 0x00, 0x00, 0x00, 0x00, 0x00, 0x00, 0x00, 0x00, 0x00,
  0x00, 0x00, 0x00, 0x00, 0x00, 0x00, 0x00, 0x00, 0x00, 0x00, 0x00, 0x00,
  0x00, 0x00, 0x00, 0x00, 0x00, 0x00, 0x00, 0x00, 0x00, 0x00, 0x00, 0x00,
  0x00, 0x00, 0x00, 0x00, 0x40, 0x00, 0x00, 0x00, 0x70, 0x81, 0x66, 0x3b,
  0x23, 0x93, 0x26, 0x3b, 0xc1, 0x34, 0x4b, 0x3b, 0xf8, 0x0f, 0x56, 0x3b,
  0x84, 0x53, 0x83, 0x3b, 0xa3, 0x81, 0x53, 0x3b, 0x9e, 0xcf, 0x61, 0x3b,
  0x0c, 0x83, 0xa7, 0x3b, 0x00, 0xd7, 0x84, 0x3b, 0x5a, 0xad, 0x69, 0x3b,
  0x69, 0x68, 0xb9, 0x3b, 0x97, 0x87, 0x63, 0x3b, 0x67, 0xb8, 0x26, 0x3b,
  0xe8, 0x88, 0xd0, 0x3a, 0x6e, 0xf5, 0x8c, 0x3b, 0x15, 0x38, 0x6d, 0x3b,
  0xb8, 0x28, 0xca, 0x3a, 0x67, 0x6e, 0x84, 0x3b, 0x5a, 0x1a, 0xf2, 0x3a,
  0x68, 0xeb, 0x8b, 0x3b, 0x90, 0x24, 0x38, 0x3b, 0x9f, 0x91, 0x83, 0x3b,
  0xaf, 0x2e, 0x59, 0x3b, 0x4a, 0x29, 0x42, 0x3b, 0x66, 0xd8, 0x97, 0x3b,
  0xe1, 0xc0, 0xb2, 0x3a, 0x62, 0x9a, 0x99, 0x3b, 0x2e, 0x65, 0x44, 0x3b,
  0x9f, 0x43, 0xa8, 0x3b, 0xfd, 0x91, 0x3a, 0x3b, 0x45, 0x3e, 0x8a, 0x3b,
  0x2b, 0x58, 0x92, 0x3b, 0x07, 0xe0, 0xdb, 0x3b, 0x6a, 0x78, 0xa9, 0x3b,
  0x0b, 0xe1, 0xb9, 0x3b, 0x16, 0x9a, 0x5b, 0x3b, 0x2a, 0xba, 0xd3, 0x3a,
  0xc1, 0xf2, 0x90, 0x3b, 0xdc, 0x9a, 0x47, 0x3b, 0x8a, 0xf9, 0xa0, 0x3a,
  0x49, 0x04, 0xa8, 0x3b, 0x9a, 0xf5, 0x63, 0x3b, 0xcc, 0xc6, 0x46, 0x3b,
  0xa3, 0xdb, 0x36, 0x3b, 0x46, 0x63, 0xc7, 0x3b, 0x05, 0x56, 0x62, 0x3b,
  0xcd, 0xb1, 0xca, 0x3b, 0x6a, 0x1d, 0x5f, 0x3b, 0xb6, 0x81, 0x92, 0x3b,
  0xa0, 0xa9, 0x72, 0x3b, 0xf5, 0x1a, 0x6a, 0x3b, 0xf6, 0x71, 0x92, 0x3b,
  0xc4, 0x00, 0x86, 0x3b, 0x17, 0x70, 0x32, 0x3b, 0xc1, 0x30, 0x74, 0x3b,
  0x06, 0xf7, 0x8c, 0x3b, 0x09, 0x28, 0x7e, 0x3b, 0x41, 0x31, 0xef, 0x3a,
  0x06, 0x19, 0x22, 0x3b, 0x12, 0x7c, 0x5e, 0x3b, 0x64, 0x9f, 0x91, 0x3b,
  0x7a, 0xbc, 0x62, 0x3b, 0x26, 0x8f, 0x67, 0x3b, 0x21, 0x81, 0x3e, 0x3b,
  0x12, 0x00, 0x00, 0x00, 0x74, 0x66, 0x6c, 0x2e, 0x70, 0x73, 0x65, 0x75,
  0x64, 0x6f, 0x5f, 0x71, 0x63, 0x6f, 0x6e, 0x73, 0x74, 0x37, 0x00, 0x00,
  0x04, 0x00, 0x00, 0x00, 0x40, 0x00, 0x00, 0x00, 0x01, 0x00, 0x00, 0x00,
  0x01, 0x00, 0x00, 0x00, 0x20, 0x00, 0x00, 0x00, 0xc2, 0xed, 0xff, 0xff,
  0x00, 0x00, 0x00, 0x01, 0x14, 0x00, 0x00, 0x00, 0x24, 0x03, 0x00, 0x00,
  0x0a, 0x00, 0x00, 0x00, 0x00, 0x00, 0x00, 0x02, 0x30, 0x03, 0x00, 0x00,
  0x3c, 0xed, 0xff, 0xff, 0x08, 0x00, 0x00, 0x00, 0x08, 0x02, 0x00, 0x00,
  0x40, 0x00, 0x00, 0x00, 0x00, 0x00, 0x00, 0x00, 0x00, 0x00, 0x00, 0x00,
  0x00, 0x00, 0x00, 0x00, 0x00, 0x00, 0x00, 0x00, 0x00, 0x00, 0x00, 0x00,
  0x00, 0x00, 0x00, 0x00, 0x00, 0x00, 0x00, 0x00, 0x00, 0x00, 0x00, 0x00,
  0x00, 0x00, 0x00, 0x00, 0x00, 0x00, 0x00, 0x00, 0x00, 0x00, 0x00, 0x00,
  0x00, 0x00, 0x00, 0x00, 0x00, 0x00, 0x00, 0x00, 0x00, 0x00, 0x00, 0x00,
  0x00, 0x00, 0x00, 0x00, 0x00, 0x00, 0x00, 0x00, 0x00, 0x00, 0x00, 0x00,
  0x00, 0x00, 0x00, 0x00, 0x00, 0x00, 0x00, 0x00, 0x00, 0x00, 0x00, 0x00,
  0x00, 0x00, 0x00, 0x00, 0x00, 0x00, 0x00, 0x00, 0x00, 0x00, 0x00, 0x00,
  0x00, 0x00, 0x00, 0x00, 0x00, 0x00, 0x00, 0x00, 0x00, 0x00, 0x00, 0x00,
  0x00, 0x00, 0x00, 0x00, 0x00, 0x00, 0x00, 0x00, 0x00, 0x00, 0x00, 0x00,
  0x00, 0x00, 0x00, 0x00, 0x00, 0x00, 0x00, 0x00, 0x00, 0x00, 0x00, 0x00,
  0x00, 0x00, 0x00, 0x00, 0x00, 0x00, 0x00, 0x00, 0x00, 0x00, 0x00, 0x00,
  0x00, 0x00, 0x00, 0x00, 0x00, 0x00, 0x00, 0x00, 0x00, 0x00, 0x00, 0x00,
  0x00, 0x00, 0x00, 0x00, 0x00, 0x00, 0x00, 0x00, 0x00, 0x00, 0x00, 0x00,
  0x00, 0x00, 0x00, 0x00, 0x00, 0x00, 0x00, 0x00, 0x00, 0x00, 0x00, 0x00,
  0x00, 0x00, 0x00, 0x00, 0x00, 0x00, 0x00, 0x00, 0x00, 0x00, 0x00, 0x00,
  0x00, 0x00, 0x00, 0x00, 0x00, 0x00, 0x00, 0x00, 0x00, 0x00, 0x00, 0x00,
  0x00, 0x00, 0x00, 0x00, 0x00, 0x00, 0x00, 0x00, 0x00, 0x00, 0x00, 0x00,
  0x00, 0x00, 0x00, 0x00, 0x00, 0x00, 0x00, 0x00, 0x00, 0x00, 0x00, 0x00,
  0x00, 0x00, 0x00, 0x00, 0x00, 0x00, 0x00, 0x00, 0x00, 0x00, 0x00, 0x00,
  0x00, 0x00, 0x00, 0x00, 0x00, 0x00, 0x00, 0x00, 0x00, 0x00, 0x00, 0x00,
  0x00, 0x00, 0x00, 0x00, 0x00, 0x00, 0x00, 0x00, 0x00, 0x00, 0x00, 0x00,
  0x00, 0x00, 0x00, 0x00, 0x00, 0x00, 0x00, 0x00, 0x00, 0x00, 0x00, 0x00,
  0x00, 0x00, 0x00, 0x00, 0x00, 0x00, 0x00, 0x00, 0x00, 0x00, 0x00, 0x00,
  0x00, 0x00, 0x00, 0x00, 0x00, 0x00, 0x00, 0x00, 0x00, 0x00, 0x00, 0x00,
  0x00, 0x00, 0x00, 0x00, 0x00, 0x00, 0x00, 0x00, 0x00, 0x00, 0x00, 0x00,
  0x00, 0x00, 0x00, 0x00, 0x00, 0x00, 0x00, 0x00, 0x00, 0x00, 0x00, 0x00,
  0x00, 0x00, 0x00, 0x00, 0x00, 0x00, 0x00, 0x00, 0x00, 0x00, 0x00, 0x00,
  0x00, 0x00, 0x00, 0x00, 0x00, 0x00, 0x00, 0x00, 0x00, 0x00, 0x00, 0x00,
  0x00, 0x00, 0x00, 0x00, 0x00, 0x00, 0x00, 0x00, 0x00, 0x00, 0x00, 0x00,
  0x00, 0x00, 0x00, 0x00, 0x00, 0x00, 0x00, 0x00, 0x00, 0x00, 0x00, 0x00,
  0x00, 0x00, 0x00, 0x00, 0x00, 0x00, 0x00, 0x00, 0x00, 0x00, 0x00, 0x00,
  0x00, 0x00, 0x00, 0x00, 0x00, 0x00, 0x00, 0x00, 0x00, 0x00, 0x00, 0x00,
  0x00, 0x00, 0x00, 0x00, 0x00, 0x00, 0x00, 0x00, 0x00, 0x00, 0x00, 0x00,
  0x00, 0x00, 0x00, 0x00, 0x00, 0x00, 0x00, 0x00, 0x00, 0x00, 0x00, 0x00,
  0x00, 0x00, 0x00, 0x00, 0x00, 0x00, 0x00, 0x00, 0x00, 0x00, 0x00, 0x00,
  0x00, 0x00, 0x00, 0x00, 0x00, 0x00, 0x00, 0x00, 0x00, 0x00, 0x00, 0x00,
  0x00, 0x00, 0x00, 0x00, 0x00, 0x00, 0x00, 0x00, 0x00, 0x00, 0x00, 0x00,
  0x00, 0x00, 0x00, 0x00, 0x00, 0x00, 0x00, 0x00, 0x00, 0x00, 0x00, 0x00,
  0x00, 0x00, 0x00, 0x00, 0x00, 0x00, 0x00, 0x00, 0x00, 0x00, 0x00, 0x00,
  0x00, 0x00, 0x00, 0x00, 0x00, 0x00, 0x00, 0x00, 0x00, 0x00, 0x00, 0x00,
  0x00, 0x00, 0x00, 0x00, 0x00, 0x00, 0x00, 0x00, 0x00, 0x00, 0x00, 0x00,
  0x00, 0x00, 0x00, 0x00, 0x00, 0x00, 0x00, 0x00, 0x00, 0x00, 0x00, 0x00,
  0x40, 0x00, 0x00, 0x00, 0xa7, 0x37, 0xe3, 0x3a, 0xd2, 0x32, 0xa4, 0x3a,
  0xaa, 0x4e, 0xc8, 0x3a, 0x3c, 0x02, 0xd3, 0x3a, 0xed, 0x73, 0x01, 0x3b,
  0x3c, 0x7d, 0xd0, 0x3a, 0xfa, 0x96, 0xde, 0x3a, 0x4f, 0x1f, 0x25, 0x3b,
  0xe2, 0xf1, 0x02, 0x3b, 0xfc, 0x57, 0xe6, 0x3a, 0x52, 0xc3, 0x36, 0x3b,
  0xad, 0x48, 0xe0, 0x3a, 0x8e, 0x57, 0xa4, 0x3a, 0x5c, 0x8f, 0x4d, 0x3a,
  0xaa, 0xf2, 0x0a, 0x3b, 0xc8, 0xd5, 0xe9, 0x3a, 0x74, 0x46, 0x47, 0x3a,
  0xc7, 0x8a, 0x02, 0x3b, 0x37, 0xa6, 0x6e, 0x3a, 0x6f, 0xec, 0x09, 0x3b,
  0x17, 0x84, 0xb5, 0x3a, 0x25, 0xb1, 0x01, 0x3b, 0x8e, 0x15, 0xd6, 0x3a,
  0x3b, 0x64, 0xbf, 0x3a, 0xe0, 0xad, 0x15, 0x3b, 0x17, 0x34, 0x30, 0x3a,
  0x71, 0x69, 0x17, 0x3b, 0xf7, 0x97, 0xc1, 0x3a, 0x23, 0xdd, 0x25, 0x3b,
  0xa7, 0xe8, 0xb7, 0x3a, 0x6b, 0x45, 0x08, 0x3b, 0xbc, 0x41, 0x10, 0x3b,
  0x11, 0xbd, 0x58, 0x3b, 0x86, 0x0d, 0x27, 0x3b, 0x3b, 0x3a, 0x37, 0x3b,
  0x1f, 0x78, 0xd8, 0x3a, 0xf5, 0xb4, 0x50, 0x3a, 0x6b, 0xe1, 0x0e, 0x3b,
  0xec, 0xc1, 0xc4, 0x3a, 0xad, 0xad, 0x1e, 0x3a, 0xb4, 0x9e, 0x25, 0x3b,
  0x1e, 0xb5, 0xe0, 0x3a, 0xe2, 0xf0, 0xc3, 0x3a, 0xdc, 0x3f, 0xb4, 0x3a,
  0x21, 0x8b, 0x44, 0x3b, 0x76, 0x1b, 0xdf, 0x3a, 0x95, 0xcd, 0x47, 0x3b,
  0x9f, 0xee, 0xdb, 0x3a, 0xaf, 0x6a, 0x10, 0x3b, 0x72, 0x33, 0xef, 0x3a,
  0x07, 0xc4, 0xe6, 0x3a, 0x28, 0x5b, 0x10, 0x3b, 0x66, 0x17, 0x04, 0x3b,
  0x74, 0xe4, 0xaf, 0x3a, 0xff, 0xb4, 0xf0, 0x3a, 0x3c, 0xf4, 0x0a, 0x3b,
  0xe2, 0x87, 0xfa, 0x3a, 0xbf, 0xc7, 0x6b, 0x3a, 0x0f, 0xc9, 0x9f, 0x3a,
  0x94, 0x4f, 0xdb, 0x3a, 0x97, 0x8b, 0x0f, 0x3b, 0x75, 0x80, 0xdf, 0x3a,
  0x84, 0x41, 0xe4, 0x3a, 0x6d, 0xc9, 0xbb, 0x3a, 0x12, 0x00, 0x00, 0x00,
  0x74, 0x66, 0x6c, 0x2e, 0x70, 0x73, 0x65, 0x75, 0x64, 0x6f, 0x5f, 0x71,
  0x63, 0x6f, 0x6e, 0x73, 0x74, 0x36, 0x00, 0x00, 0x01, 0x00, 0x00, 0x00,
  0x40, 0x00, 0x00, 0x00, 0x00, 0x00, 0x16, 0x00, 0x1e, 0x00, 0x18, 0x00,
  0x17, 0x00, 0x10, 0x00, 0x0c, 0x00, 0x08, 0x00, 0x00, 0x00, 0x00, 0x00,
  0x00, 0x00, 0x07, 0x00, 0x16, 0x00, 0x00, 0x00, 0x00, 0x00, 0x00, 0x01,
  0x28, 0x00, 0x00, 0x00, 0x40, 0x03, 0x00, 0x00, 0x09, 0x00, 0x00, 0x00,
  0x00, 0x00, 0x00, 0x09, 0x4c, 0x03, 0x00, 0x00, 0x00, 0x00, 0x12, 0x00,
  0x10, 0x00, 0x00, 0x00, 0x00, 0x00, 0x0c, 0x00, 0x08, 0x00, 0x00, 0x00,
  0x00, 0x00, 0x04, 0x00, 0x12, 0x00, 0x00, 0x00, 0x03, 0x00, 0x00, 0x00,
  0x08, 0x00, 0x00, 0x00, 0x0c, 0x02, 0x00, 0x00, 0x40, 0x00, 0x00, 0x00,
  0x00, 0x00, 0x00, 0x00, 0x00, 0x00, 0x00, 0x00, 0x00, 0x00, 0x00, 0x00,
  0x00, 0x00, 0x00, 0x00, 0x00, 0x00, 0x00, 0x00, 0x00, 0x00, 0x00, 0x00,
  0x00, 0x00, 0x00, 0x00, 0x00, 0x00, 0x00, 0x00, 0x00, 0x00, 0x00, 0x00,
  0x00, 0x00, 0x00, 0x00, 0x00, 0x00, 0x00, 0x00, 0x00, 0x00, 0x00, 0x00,
  0x00, 0x00, 0x00, 0x00, 0x00, 0x00, 0x00, 0x00, 0x00, 0x00, 0x00, 0x00,
  0x00, 0x00, 0x00, 0x00, 0x00, 0x00, 0x00, 0x00, 0x00, 0x00, 0x00, 0x00,
  0x00, 0x00, 0x00, 0x00, 0x00, 0x00, 0x00, 0x00, 0x00, 0x00, 0x00, 0x00,
  0x00, 0x00, 0x00, 0x00, 0x00, 0x00, 0x00, 0x00, 0x00, 0x00, 0x00, 0x00,
  0x00, 0x00, 0x00, 0x00, 0x00, 0x00, 0x00, 0x00, 0x00, 0x00, 0x00, 0x00,
  0x00, 0x00, 0x00, 0x00, 0x00, 0x00, 0x00, 0x00, 0x00, 0x00, 0x00, 0x00,
  0x00, 0x00, 0x00, 0x00, 0x00, 0x00, 0x00, 0x00, 0x00, 0x00, 0x00, 0x00,
  0x00, 0x00, 0x00, 0x00, 0x00, 0x00, 0x00, 0x00, 0x00, 0x00, 0x00, 0x00,
  0x00, 0x00, 0x00, 0x00, 0x00, 0x00, 0x00, 0x00, 0x00, 0x00, 0x00, 0x00,
  0x00, 0x00, 0x00, 0x00, 0x00, 0x00, 0x00, 0x00, 0x00, 0x00, 0x00, 0x00,
  0x00, 0x00, 0x00, 0x00, 0x00, 0x00, 0x00, 0x00, 0x00, 0x00, 0x00, 0x00,
